static const unsigned char STARK_MODEL[]={28,0,0,0,84,70,76,51,20,0,32,0,4,0,8,0,12,0,16,0,20,0,0,0,24,0,28,0,20,0,0,0,3,0,0,0,24,0,0,0,68,0,0,0,236,2,0,0,68,0,0,0,148,2,0,0,0,2,0,0,11,0,0,0,60,34,0,0,204,32,0,0,28,32,0,0,16,26,0,0,128,25,0,0,96,24,0,0,204,23,0,0,68,23,0,0,0,18,0,0,24,10,0,0,156,7,0,0,1,0,0,0,204,2,0,0,112,0,0,0,236,207,0,0,232,207,0,0,192,206,0,0,24,206,0,0,124,205,0,0,200,204,0,0,80,204,0,0,240,203,0,0,160,203,0,0,72,203,0,0,224,196,0,0,120,190,0,0,52,189,0,0,240,187,0,0,168,165,0,0,208,157,0,0,248,149,0,0,248,147,0,0,168,142,0,0,88,134,0,0,136,132,0,0,184,130,0,0,104,129,0,0,152,127,0,0,200,125,0,0,120,122,0,0,136,119,0,0,216,115,0,0,232,112,0,0,248,109,0,0,104,107,0,0,216,101,0,0,72,96,0,0,184,90,0,0,104,84,0,0,216,78,0,0,136,72,0,0,56,48,0,0,168,42,0,0,64,42,0,0,188,41,0,0,100,41,0,0,12,41,0,0,164,40,0,0,80,40,0,0,232,39,0,0,128,39,0,0,32,39,0,0,168,38,0,0,72,38,0,0,236,37,0,0,116,37,0,0,252,36,0,0,148,36,0,0,44,36,0,0,164,35,0,0,60,35,0,0,180,34,0,0,236,33,0,0,132,33,0,0,252,206,0,0,248,206,0,0,244,206,0,0,240,206,0,0,236,206,0,0,232,206,0,0,228,206,0,0,224,206,0,0,220,206,0,0,216,206,0,0,212,206,0,0,208,206,0,0,204,206,0,0,200,206,0,0,196,206,0,0,192,206,0,0,188,206,0,0,184,206,0,0,180,206,0,0,176,206,0,0,172,206,0,0,168,206,0,0,164,206,0,0,160,206,0,0,156,206,0,0,152,206,0,0,148,206,0,0,144,206,0,0,140,206,0,0,136,206,0,0,132,206,0,0,128,206,0,0,124,206,0,0,120,206,0,0,116,206,0,0,112,206,0,0,108,206,0,0,104,206,0,0,100,206,0,0,96,206,0,0,92,206,0,0,88,206,0,0,84,206,0,0,80,206,0,0,76,206,0,0,72,206,0,0,68,206,0,0,64,206,0,0,60,206,0,0,56,206,0,0,52,206,0,0,200,0,0,0,1,0,0,0,16,0,0,0,12,0,20,0,16,0,12,0,8,0,4,0,12,0,0,0,16,0,0,0,24,0,0,0,40,0,0,0,44,0,0,0,5,0,0,0,115,101,114,118,101,0,0,0,15,0,0,0,115,101,114,118,105,110,103,95,100,101,102,97,117,108,116,0,1,0,0,0,20,0,0,0,1,0,0,0,40,0,0,0,8,0,12,0,8,0,4,0,8,0,0,0,109,0,0,0,4,0,0,0,10,0,0,0,112,114,101,100,105,99,116,105,111,110,0,0,122,51,255,255,4,0,0,0,7,0,0,0,105,110,112,117,116,95,49,0,1,0,0,0,12,0,0,0,8,0,12,0,4,0,8,0,8,0,0,0,8,0,0,0,111,0,0,0,19,0,0,0,109,105,110,95,114,117,110,116,105,109,101,95,118,101,114,115,105,111,110,0,194,51,255,255,4,0,0,0,16,0,0,0,49,46,49,52,46,48,0,0,0,0,0,0,0,0,0,0,15,0,0,0,77,76,73,82,32,67,111,110,118,101,114,116,101,100,46,0,0,0,14,0,24,0,4,0,8,0,12,0,16,0,20,0,14,0,0,0,20,0,0,0,204,1,0,0,208,1,0,0,212,1,0,0,160,2,0,0,110,0,0,0,164,204,0,0,88,204,0,0,160,203,0,0,4,203,0,0,104,202,0,0,184,201,0,0,56,201,0,0,216,200,0,0,136,200,0,0,48,200,0,0,200,193,0,0,100,187,0,0,32,186,0,0,216,184,0,0,144,162,0,0,184,154,0,0,224,146,0,0,216,144,0,0,136,139,0,0,56,131,0,0,104,129,0,0,152,127,0,0,72,126,0,0,120,124,0,0,168,122,0,0,88,119,0,0,104,116,0,0,184,112,0,0,200,109,0,0,216,106,0,0,72,104,0,0,184,98,0,0,40,93,0,0,152,87,0,0,72,81,0,0,184,75,0,0,104,69,0,0,24,45,0,0,144,39,0,0,44,39,0,0,164,38,0,0,76,38,0,0,244,37,0,0,144,37,0,0,56,37,0,0,208,36,0,0,104,36,0,0,8,36,0,0,144,35,0,0,52,35,0,0,212,34,0,0,92,34,0,0,228,33,0,0,124,33,0,0,20,33,0,0,140,32,0,0,36,32,0,0,156,31,0,0,212,30,0,0,72,30,0,0,124,29,0,0,212,28,0,0,36,28,0,0,84,27,0,0,188,26,0,0,36,26,0,0,140,25,0,0,244,24,0,0,92,24,0,0,176,23,0,0,24,23,0,0,124,22,0,0,244,21,0,0,100,21,0,0,192,20,0,0,64,20,0,0,172,19,0,0,36,19,0,0,128,18,0,0,232,17,0,0,80,17,0,0,184,16,0,0,32,16,0,0,136,15,0,0,236,14,0,0,84,14,0,0,192,13,0,0,48,13,0,0,144,12,0,0,248,11,0,0,96,11,0,0,200,10,0,0,48,10,0,0,152,9,0,0,0,9,0,0,100,8,0,0,204,7,0,0,56,7,0,0,184,6,0,0,32,6,0,0,156,5,0,0,16,5,0,0,148,4,0,0,28,4,0,0,148,3,0,0,24,3,0,0,148,2,0,0,20,2,0,0,172,1,0,0,36,1,0,0,1,0,0,0,0,0,0,0,1,0,0,0,109,0,0,0,51,0,0,0,8,29,0,0,100,28,0,0,176,27,0,0,228,26,0,0,60,26,0,0,164,25,0,0,12,25,0,0,116,24,0,0,220,23,0,0,48,23,0,0,152,22,0,0,252,21,0,0,92,21,0,0,212,20,0,0,52,20,0,0,172,19,0,0,48,19,0,0,152,18,0,0,0,18,0,0,104,17,0,0,208,16,0,0,56,16,0,0,160,15,0,0,8,15,0,0,108,14,0,0,212,13,0,0,56,13,0,0,176,12,0,0,16,12,0,0,120,11,0,0,224,10,0,0,72,10,0,0,176,9,0,0,24,9,0,0,128,8,0,0,228,7,0,0,76,7,0,0,176,6,0,0,56,6,0,0,152,5,0,0,16,5,0,0,120,4,0,0,0,4,0,0,144,3,0,0,8,3,0,0,128,2,0,0,8,2,0,0,128,1,0,0,20,1,0,0,156,0,0,0,16,0,0,0,4,0,0,0,109,97,105,110,0,0,0,0,46,229,255,255,0,0,0,8,4,0,0,0,24,0,0,0,12,0,0,0,4,0,0,0,180,53,255,255,1,0,0,0,109,0,0,0,3,0,0,0,108,0,0,0,16,0,0,0,255,255,255,255,72,54,255,255,20,0,0,0,110,0,0,0,36,0,0,0,64,0,0,0,16,0,0,0,2,0,0,0,1,0,0,0,5,0,0,0,2,0,0,0,255,255,255,255,5,0,0,0,25,0,0,0,83,116,97,116,101,102,117,108,80,97,114,116,105,116,105,111,110,101,100,67,97,108,108,58,48,0,0,0,32,54,255,255,182,229,255,255,0,0,0,21,7,0,0,0,24,0,0,0,12,0,0,0,4,0,0,0,60,54,255,255,1,0,0,0,108,0,0,0,2,0,0,0,103,0,0,0,107,0,0,0,204,54,255,255,20,0,0,0,109,0,0,0,36,0,0,0,48,0,0,0,16,0,0,0,2,0,0,0,1,0,0,0,22,0,0,0,2,0,0,0,255,255,255,255,22,0,0,0,8,0,0,0,116,102,108,46,109,117,108,50,0,0,0,0,148,54,255,255,110,238,255,255,5,0,0,0,16,0,0,0,4,0,0,0,1,0,0,0,107,0,0,0,1,0,0,0,106,0,0,0,48,55,255,255,20,0,0,0,108,0,0,0,36,0,0,0,52,0,0,0,16,0,0,0,2,0,0,0,1,0,0,0,22,0,0,0,2,0,0,0,255,255,255,255,22,0,0,0,13,0,0,0,116,102,108,46,108,111,103,105,115,116,105,99,49,0,0,0,252,54,255,255,146,230,255,255,0,0,0,8,4,0,0,0,24,0,0,0,12,0,0,0,4,0,0,0,24,55,255,255,1,0,0,0,106,0,0,0,3,0,0,0,105,0,0,0,15,0,0,0,1,0,0,0,172,55,255,255,20,0,0,0,107,0,0,0,36,0,0,0,60,0,0,0,16,0,0,0,2,0,0,0,1,0,0,0,22,0,0,0,2,0,0,0,255,255,255,255,22,0,0,0,20,0,0,0,116,102,108,46,102,117,108,108,121,95,99,111,110,110,101,99,116,101,100,52,0,0,0,0,128,55,255,255,90,239,255,255,10,0,0,0,16,0,0,0,4,0,0,0,1,0,0,0,105,0,0,0,1,0,0,0,104,0,0,0,148,229,255,255,28,0,0,0,0,0,0,28,1,0,0,0,44,56,255,255,20,0,0,0,106,0,0,0,36,0,0,0,48,0,0,0,16,0,0,0,2,0,0,0,1,0,0,0,22,0,0,0,2,0,0,0,255,255,255,255,22,0,0,0,8,0,0,0,116,102,108,46,116,97,110,104,0,0,0,0,244,55,255,255,138,231,255,255,0,0,0,8,4,0,0,0,24,0,0,0,12,0,0,0,4,0,0,0,16,56,255,255,1,0,0,0,104,0,0,0,3,0,0,0,103,0,0,0,14,0,0,0,2,0,0,0,164,56,255,255,20,0,0,0,105,0,0,0,36,0,0,0,60,0,0,0,16,0,0,0,2,0,0,0,1,0,0,0,22,0,0,0,2,0,0,0,255,255,255,255,22,0,0,0,20,0,0,0,116,102,108,46,102,117,108,108,121,95,99,111,110,110,101,99,116,101,100,51,0,0,0,0,120,56,255,255,14,232,255,255,0,0,0,8,4,0,0,0,24,0,0,0,12,0,0,0,4,0,0,0,148,56,255,255,1,0,0,0,103,0,0,0,3,0,0,0,102,0,0,0,13,0,0,0,3,0,0,0,40,57,255,255,20,0,0,0,104,0,0,0,36,0,0,0,60,0,0,0,16,0,0,0,2,0,0,0,1,0,0,0,22,0,0,0,2,0,0,0,255,255,255,255,22,0,0,0,20,0,0,0,116,102,108,46,102,117,108,108,121,95,99,111,110,110,101,99,116,101,100,50,0,0,0,0,252,56,255,255,214,240,255,255,6,0,0,0,16,0,0,0,4,0,0,0,1,0,0,0,102,0,0,0,2,0,0,0,101,0,0,0,6,0,0,0,156,57,255,255,20,0,0,0,103,0,0,0,36,0,0,0,52,0,0,0,16,0,0,0,2,0,0,0,1,0,0,0,64,0,0,0,2,0,0,0,255,255,255,255,64,0,0,0,12,0,0,0,116,102,108,46,114,101,115,104,97,112,101,49,0,0,0,0,104,57,255,255,254,232,255,255,0,0,0,27,3,0,0,0,24,0,0,0,12,0,0,0,4,0,0,0,132,57,255,255,1,0,0,0,101,0,0,0,2,0,0,0,100,0,0,0,7,0,0,0,20,58,255,255,20,0,0,0,102,0,0,0,36,0,0,0,48,0,0,0,16,0,0,0,2,0,0,0,1,0,0,0,64,0,0,0,2,0,0,0,255,255,255,255,64,0,0,0,9,0,0,0,116,102,108,46,109,101,97,110,49,0,0,0,220,57,255,255,114,233,255,255,0,0,0,11,9,0,0,0,24,0,0,0,12,0,0,0,4,0,0,0,248,57,255,255,1,0,0,0,100,0,0,0,2,0,0,0,99,0,0,0,12,0,0,0,0,0,10,0,8,0,0,0,0,0,4,0,10,0,0,0,1,0,0,0,156,58,255,255,20,0,0,0,101,0,0,0,52,0,0,0,60,0,0,0,24,0,0,0,4,0,0,0,1,0,0,0,1,0,0,0,2,0,0,0,64,0,0,0,4,0,0,0,255,255,255,255,1,0,0,0,2,0,0,0,64,0,0,0,7,0,0,0,116,102,108,46,97,100,100,0,112,58,255,255,6,234,255,255,0,0,0,21,7,0,0,0,24,0,0,0,12,0,0,0,4,0,0,0,140,58,255,255,1,0,0,0,99,0,0,0,2,0,0,0,98,0,0,0,11,0,0,0,28,59,255,255,20,0,0,0,100,0,0,0,52,0,0,0,64,0,0,0,24,0,0,0,4,0,0,0,1,0,0,0,1,0,0,0,2,0,0,0,64,0,0,0,4,0,0,0,255,255,255,255,1,0,0,0,2,0,0,0,64,0,0,0,8,0,0,0,116,102,108,46,109,117,108,49,0,0,0,0,244,58,255,255,138,234,255,255,0,0,0,5,2,0,0,0,44,0,0,0,32,0,0,0,4,0,0,0,66,235,255,255,1,0,0,0,2,0,0,0,1,0,0,0,2,0,0,0,0,0,0,1,1,0,0,0,98,0,0,0,1,0,0,0,97,0,0,0,176,59,255,255,20,0,0,0,99,0,0,0,52,0,0,0,72,0,0,0,24,0,0,0,4,0,0,0,1,0,0,0,1,0,0,0,2,0,0,0,64,0,0,0,4,0,0,0,255,255,255,255,1,0,0,0,2,0,0,0,64,0,0,0,16,0,0,0,116,102,108,46,109,97,120,95,112,111,111,108,95,50,100,54,0,0,0,0,144,59,255,255,106,243,255,255,8,0,0,0,16,0,0,0,4,0,0,0,1,0,0,0,97,0,0,0,1,0,0,0,96,0,0,0,44,60,255,255,20,0,0,0,98,0,0,0,52,0,0,0,64,0,0,0,24,0,0,0,4,0,0,0,1,0,0,0,1,0,0,0,4,0,0,0,64,0,0,0,4,0,0,0,255,255,255,255,1,0,0,0,4,0,0,0,64,0,0,0,10,0,0,0,116,102,108,46,114,101,108,117,54,49,0,0,4,60,255,255,154,235,255,255,0,0,0,10,1,0,0,0,28,0,0,0,16,0,0,0,4,0,0,0,70,61,255,255,3,0,0,0,1,0,0,0,96,0,0,0,4,0,0,0,88,0,0,0,90,0,0,0,93,0,0,0,95,0,0,0,188,60,255,255,20,0,0,0,97,0,0,0,52,0,0,0,72,0,0,0,24,0,0,0,4,0,0,0,1,0,0,0,1,0,0,0,4,0,0,0,64,0,0,0,4,0,0,0,255,255,255,255,1,0,0,0,4,0,0,0,64,0,0,0,18,0,0,0,116,102,108,46,99,111,110,99,97,116,101,110,97,116,105,111,110,51,0,0,156,60,255,255,130,235,255,255,0,0,0,1,32,0,0,0,20,0,0,0,4,0,0,0,210,234,255,255,1,0,0,0,1,0,0,0,1,0,0,0,95,0,0,0,3,0,0,0,94,0,0,0,37,0,0,0,58,0,0,0,80,61,255,255,20,0,0,0,96,0,0,0,52,0,0,0,72,0,0,0,24,0,0,0,4,0,0,0,1,0,0,0,1,0,0,0,4,0,0,0,8,0,0,0,4,0,0,0,255,255,255,255,1,0,0,0,4,0,0,0,8,0,0,0,17,0,0,0,59,59,99,111,110,118,50,100,95,50,48,47,98,105,97,115,49,0,0,0,48,61,255,255,198,236,255,255,0,0,0,5,2,0,0,0,40,0,0,0,28,0,0,0,4,0,0,0,26,241,255,255,1,0,0,0,3,0,0,0,1,0,0,0,1,0,0,0,1,0,0,0,94,0,0,0,1,0,0,0,87,0,0,0,232,61,255,255,20,0,0,0,95,0,0,0,52,0,0,0,72,0,0,0,24,0,0,0,4,0,0,0,1,0,0,0,1,0,0,0,4,0,0,0,42,0,0,0,4,0,0,0,255,255,255,255,1,0,0,0,4,0,0,0,42,0,0,0,16,0,0,0,116,102,108,46,109,97,120,95,112,111,111,108,95,50,100,53,0,0,0,0,200,61,255,255,174,236,255,255,0,0,0,1,32,0,0,0,20,0,0,0,4,0,0,0,254,235,255,255,1,0,0,0,1,0,0,0,1,0,0,0,93,0,0,0,3,0,0,0,92,0,0,0,36,0,0,0,57,0,0,0,124,62,255,255,20,0,0,0,94,0,0,0,52,0,0,0,72,0,0,0,24,0,0,0,4,0,0,0,1,0,0,0,1,0,0,0,4,0,0,0,32,0,0,0,4,0,0,0,255,255,255,255,1,0,0,0,4,0,0,0,32,0,0,0,17,0,0,0,59,59,99,111,110,118,50,100,95,49,57,47,98,105,97,115,49,0,0,0,92,62,255,255,66,237,255,255,0,0,0,1,32,0,0,0,20,0,0,0,4,0,0,0,146,236,255,255,1,0,0,0,1,0,0,0,1,0,0,0,92,0,0,0,3,0,0,0,91,0,0,0,35,0,0,0,56,0,0,0,16,63,255,255,20,0,0,0,93,0,0,0,52,0,0,0,72,0,0,0,24,0,0,0,4,0,0,0,1,0,0,0,1,0,0,0,4,0,0,0,16,0,0,0,4,0,0,0,255,255,255,255,1,0,0,0,4,0,0,0,16,0,0,0,17,0,0,0,59,59,99,111,110,118,50,100,95,49,56,47,98,105,97,115,49,0,0,0,240,62,255,255,214,237,255,255,0,0,0,1,32,0,0,0,20,0,0,0,4,0,0,0,38,237,255,255,1,0,0,0,1,0,0,0,1,0,0,0,91,0,0,0,3,0,0,0,87,0,0,0,34,0,0,0,55,0,0,0,164,63,255,255,20,0,0,0,92,0,0,0,52,0,0,0,72,0,0,0,24,0,0,0,4,0,0,0,1,0,0,0,1,0,0,0,4,0,0,0,8,0,0,0,4,0,0,0,255,255,255,255,1,0,0,0,4,0,0,0,8,0,0,0,18,0,0,0,59,59,59,99,111,110,118,50,100,95,49,55,47,98,105,97,115,49,0,0,132,63,255,255,106,238,255,255,0,0,0,1,32,0,0,0,20,0,0,0,4,0,0,0,186,237,255,255,1,0,0,0,1,0,0,0,1,0,0,0,90,0,0,0,3,0,0,0,89,0,0,0,33,0,0,0,54,0,0,0,56,64,255,255,20,0,0,0,91,0,0,0,52,0,0,0,72,0,0,0,24,0,0,0,4,0,0,0,1,0,0,0,1,0,0,0,4,0,0,0,16,0,0,0,4,0,0,0,255,255,255,255,1,0,0,0,4,0,0,0,16,0,0,0,18,0,0,0,59,59,59,99,111,110,118,50,100,95,49,54,47,98,105,97,115,49,0,0,24,64,255,255,254,238,255,255,0,0,0,1,32,0,0,0,20,0,0,0,4,0,0,0,78,238,255,255,1,0,0,0,1,0,0,0,1,0,0,0,89,0,0,0,3,0,0,0,87,0,0,0,32,0,0,0,53,0,0,0,204,64,255,255,20,0,0,0,90,0,0,0,52,0,0,0,72,0,0,0,24,0,0,0,4,0,0,0,1,0,0,0,1,0,0,0,4,0,0,0,8,0,0,0,4,0,0,0,255,255,255,255,1,0,0,0,4,0,0,0,8,0,0,0,18,0,0,0,59,59,59,99,111,110,118,50,100,95,49,53,47,98,105,97,115,49,0,0,172,64,255,255,146,239,255,255,0,0,0,1,32,0,0,0,20,0,0,0,4,0,0,0,226,238,255,255,1,0,0,0,1,0,0,0,1,0,0,0,88,0,0,0,3,0,0,0,87,0,0,0,31,0,0,0,52,0,0,0,96,65,255,255,20,0,0,0,89,0,0,0,52,0,0,0,72,0,0,0,24,0,0,0,4,0,0,0,1,0,0,0,1,0,0,0,4,0,0,0,8,0,0,0,4,0,0,0,255,255,255,255,1,0,0,0,4,0,0,0,8,0,0,0,18,0,0,0,59,59,59,99,111,110,118,50,100,95,49,52,47,98,105,97,115,49,0,0,64,65,255,255,214,240,255,255,0,0,0,5,2,0,0,0,44,0,0,0,32,0,0,0,4,0,0,0,142,241,255,255,1,0,0,0,4,0,0,0,1,0,0,0,2,0,0,0,0,0,0,1,1,0,0,0,87,0,0,0,1,0,0,0,86,0,0,0,252,65,255,255,20,0,0,0,88,0,0,0,52,0,0,0,72,0,0,0,24,0,0,0,4,0,0,0,1,0,0,0,1,0,0,0,4,0,0,0,42,0,0,0,4,0,0,0,255,255,255,255,1,0,0,0,4,0,0,0,42,0,0,0,16,0,0,0,116,102,108,46,109,97,120,95,112,111,111,108,95,50,100,52,0,0,0,0,220,65,255,255,182,249,255,255,8,0,0,0,16,0,0,0,4,0,0,0,1,0,0,0,86,0,0,0,1,0,0,0,85,0,0,0,240,239,255,255,21,0,0,0,0,0,0,21,1,0,0,0,136,66,255,255,20,0,0,0,87,0,0,0,52,0,0,0,64,0,0,0,24,0,0,0,4,0,0,0,1,0,0,0,1,0,0,0,11,0,0,0,42,0,0,0,4,0,0,0,255,255,255,255,1,0,0,0,11,0,0,0,42,0,0,0,9,0,0,0,116,102,108,46,114,101,108,117,54,0,0,0,96,66,255,255,246,241,255,255,0,0,0,10,1,0,0,0,28,0,0,0,16,0,0,0,4,0,0,0,162,67,255,255,3,0,0,0,1,0,0,0,85,0,0,0,4,0,0,0,80,0,0,0,82,0,0,0,79,0,0,0,84,0,0,0,24,67,255,255,20,0,0,0,86,0,0,0,52,0,0,0,72,0,0,0,24,0,0,0,4,0,0,0,1,0,0,0,1,0,0,0,11,0,0,0,42,0,0,0,4,0,0,0,255,255,255,255,1,0,0,0,11,0,0,0,42,0,0,0,18,0,0,0,116,102,108,46,99,111,110,99,97,116,101,110,97,116,105,111,110,50,0,0,248,66,255,255,222,241,255,255,0,0,0,1,32,0,0,0,20,0,0,0,4,0,0,0,46,241,255,255,1,0,0,0,1,0,0,0,1,0,0,0,84,0,0,0,3,0,0,0,83,0,0,0,30,0,0,0,51,0,0,0,172,67,255,255,20,0,0,0,85,0,0,0,52,0,0,0,72,0,0,0,24,0,0,0,4,0,0,0,1,0,0,0,1,0,0,0,11,0,0,0,12,0,0,0,4,0,0,0,255,255,255,255,1,0,0,0,11,0,0,0,12,0,0,0,17,0,0,0,59,59,99,111,110,118,50,100,95,49,51,47,98,105,97,115,49,0,0,0,140,67,255,255,34,243,255,255,0,0,0,5,2,0,0,0,40,0,0,0,28,0,0,0,4,0,0,0,118,247,255,255,1,0,0,0,3,0,0,0,1,0,0,0,1,0,0,0,1,0,0,0,83,0,0,0,1,0,0,0,77,0,0,0,68,68,255,255,20,0,0,0,84,0,0,0,52,0,0,0,72,0,0,0,24,0,0,0,4,0,0,0,1,0,0,0,1,0,0,0,11,0,0,0,28,0,0,0,4,0,0,0,255,255,255,255,1,0,0,0,11,0,0,0,28,0,0,0,16,0,0,0,116,102,108,46,109,97,120,95,112,111,111,108,95,50,100,51,0,0,0,0,36,68,255,255,10,243,255,255,0,0,0,1,32,0,0,0,20,0,0,0,4,0,0,0,90,242,255,255,1,0,0,0,1,0,0,0,1,0,0,0,82,0,0,0,3,0,0,0,81,0,0,0,29,0,0,0,50,0,0,0,216,68,255,255,20,0,0,0,83,0,0,0,52,0,0,0,72,0,0,0,24,0,0,0,4,0,0,0,1,0,0,0,1,0,0,0,11,0,0,0,12,0,0,0,4,0,0,0,255,255,255,255,1,0,0,0,11,0,0,0,12,0,0,0,18,0,0,0,59,59,59,99,111,110,118,50,100,95,49,48,47,98,105,97,115,49,0,0,184,68,255,255,158,243,255,255,0,0,0,1,32,0,0,0,20,0,0,0,4,0,0,0,238,242,255,255,1,0,0,0,1,0,0,0,1,0,0,0,81,0,0,0,3,0,0,0,77,0,0,0,28,0,0,0,49,0,0,0,108,69,255,255,20,0,0,0,82,0,0,0,52,0,0,0,72,0,0,0,24,0,0,0,4,0,0,0,1,0,0,0,1,0,0,0,11,0,0,0,6,0,0,0,4,0,0,0,255,255,255,255,1,0,0,0,11,0,0,0,6,0,0,0,16,0,0,0,59,59,99,111,110,118,50,100,95,57,47,98,105,97,115,49,0,0,0,0,76,69,255,255,50,244,255,255,0,0,0,1,32,0,0,0,20,0,0,0,4,0,0,0,130,243,255,255,1,0,0,0,1,0,0,0,1,0,0,0,80,0,0,0,3,0,0,0,77,0,0,0,27,0,0,0,48,0,0,0,0,70,255,255,20,0,0,0,81,0,0,0,52,0,0,0,72,0,0,0,24,0,0,0,4,0,0,0,1,0,0,0,1,0,0,0,11,0,0,0,6,0,0,0,4,0,0,0,255,255,255,255,1,0,0,0,11,0,0,0,6,0,0,0,17,0,0,0,59,59,59,99,111,110,118,50,100,95,56,47,98,105,97,115,49,0,0,0,224,69,255,255,198,244,255,255,0,0,0,1,32,0,0,0,20,0,0,0,4,0,0,0,22,244,255,255,1,0,0,0,1,0,0,0,1,0,0,0,79,0,0,0,3,0,0,0,78,0,0,0,26,0,0,0,47,0,0,0,148,70,255,255,20,0,0,0,80,0,0,0,52,0,0,0,72,0,0,0,24,0,0,0,4,0,0,0,1,0,0,0,1,0,0,0,11,0,0,0,12,0,0,0,4,0,0,0,255,255,255,255,1,0,0,0,11,0,0,0,12,0,0,0,18,0,0,0,59,59,59,99,111,110,118,50,100,95,49,50,47,98,105,97,115,49,0,0,116,70,255,255,90,245,255,255,0,0,0,1,32,0,0,0,20,0,0,0,4,0,0,0,170,244,255,255,1,0,0,0,1,0,0,0,1,0,0,0,78,0,0,0,3,0,0,0,77,0,0,0,25,0,0,0,46,0,0,0,40,71,255,255,20,0,0,0,79,0,0,0,52,0,0,0,72,0,0,0,24,0,0,0,4,0,0,0,1,0,0,0,1,0,0,0,11,0,0,0,6,0,0,0,4,0,0,0,255,255,255,255,1,0,0,0,11,0,0,0,6,0,0,0,18,0,0,0,59,59,59,99,111,110,118,50,100,95,49,49,47,98,105,97,115,49,0,0,8,71,255,255,158,246,255,255,0,0,0,21,7,0,0,0,28,0,0,0,16,0,0,0,4,0,0,0,218,253,255,255,0,0,0,3,1,0,0,0,77,0,0,0,2,0,0,0,71,0,0,0,76,0,0,0,48,245,255,255,18,0,0,0,0,0,0,18,1,0,0,0,200,71,255,255,20,0,0,0,78,0,0,0,52,0,0,0,60,0,0,0,24,0,0,0,4,0,0,0,1,0,0,0,1,0,0,0,11,0,0,0,28,0,0,0,4,0,0,0,255,255,255,255,1,0,0,0,11,0,0,0,28,0,0,0,7,0,0,0,116,102,108,46,109,117,108,0,156,71,255,255,118,255,255,255,6,0,0,0,16,0,0,0,4,0,0,0,1,0,0,0,76,0,0,0,2,0,0,0,75,0,0,0,8,0,0,0,180,245,255,255,22,0,0,0,0,0,0,22,1,0,0,0,76,72,255,255,20,0,0,0,77,0,0,0,52,0,0,0,64,0,0,0,24,0,0,0,4,0,0,0,1,0,0,0,1,0,0,0,1,0,0,0,28,0,0,0,4,0,0,0,255,255,255,255,1,0,0,0,1,0,0,0,28,0,0,0,11,0,0,0,116,102,108,46,114,101,115,104,97,112,101,0,84,73,255,255,0,0,10,0,16,0,4,0,8,0,12,0,10,0,0,0,5,0,0,0,16,0,0,0,4,0,0,0,1,0,0,0,75,0,0,0,1,0,0,0,74,0,0,0,68,246,255,255,14,0,0,0,0,0,0,14,1,0,0,0,220,72,255,255,20,0,0,0,76,0,0,0,36,0,0,0,52,0,0,0,16,0,0,0,2,0,0,0,1,0,0,0,28,0,0,0,2,0,0,0,255,255,255,255,28,0,0,0,12,0,0,0,116,102,108,46,108,111,103,105,115,116,105,99,0,0,0,0,168,72,255,255,62,248,255,255,0,0,0,8,4,0,0,0,24,0,0,0,12,0,0,0,4,0,0,0,196,72,255,255,1,0,0,0,74,0,0,0,3,0,0,0,73,0,0,0,10,0,0,0,4,0,0,0,88,73,255,255,20,0,0,0,75,0,0,0,36,0,0,0,60,0,0,0,16,0,0,0,2,0,0,0,1,0,0,0,28,0,0,0,2,0,0,0,255,255,255,255,28,0,0,0,20,0,0,0,116,102,108,46,102,117,108,108,121,95,99,111,110,110,101,99,116,101,100,49,0,0,0,0,44,73,255,255,138,249,255,255,0,0,0,8,4,0,0,0,36,0,0,0,24,0,0,0,12,0,0,0,0,0,6,0,8,0,7,0,6,0,0,0,0,0,0,3,1,0,0,0,73,0,0,0,3,0,0,0,72,0,0,0,9,0,0,0,5,0,0,0,96,247,255,255,9,0,0,0,0,0,0,9,1,0,0,0,248,73,255,255,20,0,0,0,74,0,0,0,36,0,0,0,56,0,0,0,16,0,0,0,2,0,0,0,1,0,0,0,14,0,0,0,2,0,0,0,255,255,255,255,14,0,0,0,19,0,0,0,116,102,108,46,102,117,108,108,121,95,99,111,110,110,101,99,116,101,100,0,200,73,255,255,94,249,255,255,0,0,0,27,3,0,0,0,24,0,0,0,12,0,0,0,4,0,0,0,228,73,255,255,1,0,0,0,72,0,0,0,2,0,0,0,71,0,0,0,7,0,0,0,236,247,255,255,40,0,0,0,0,0,0,40,1,0,0,0,132,74,255,255,20,0,0,0,73,0,0,0,36,0,0,0,48,0,0,0,16,0,0,0,2,0,0,0,1,0,0,0,28,0,0,0,2,0,0,0,255,255,255,255,28,0,0,0,8,0,0,0,116,102,108,46,109,101,97,110,0,0,0,0,76,74,255,255,226,249,255,255,0,0,0,5,2,0,0,0,44,0,0,0,32,0,0,0,4,0,0,0,154,250,255,255,1,0,0,0,4,0,0,0,1,0,0,0,2,0,0,0,0,0,0,1,1,0,0,0,71,0,0,0,1,0,0,0,70,0,0,0,8,75,255,255,20,0,0,0,72,0,0,0,52,0,0,0,72,0,0,0,24,0,0,0,4,0,0,0,1,0,0,0,1,0,0,0,11,0,0,0,28,0,0,0,4,0,0,0,255,255,255,255,1,0,0,0,11,0,0,0,28,0,0,0,16,0,0,0,116,102,108,46,109,97,120,95,112,111,111,108,95,50,100,50,0,0,0,0,232,74,255,255,126,250,255,255,0,0,0,10,1,0,0,0,28,0,0,0,16,0,0,0,4,0,0,0,42,76,255,255,3,0,0,0,1,0,0,0,70,0,0,0,4,0,0,0,63,0,0,0,65,0,0,0,67,0,0,0,69,0,0,0,160,75,255,255,20,0,0,0,71,0,0,0,52,0,0,0,72,0,0,0,24,0,0,0,4,0,0,0,1,0,0,0,1,0,0,0,24,0,0,0,28,0,0,0,4,0,0,0,255,255,255,255,1,0,0,0,24,0,0,0,28,0,0,0,18,0,0,0,116,102,108,46,99,111,110,99,97,116,101,110,97,116,105,111,110,49,0,0,128,75,255,255,102,250,255,255,0,0,0,1,32,0,0,0,20,0,0,0,4,0,0,0,182,249,255,255,1,0,0,0,1,0,0,0,1,0,0,0,69,0,0,0,3,0,0,0,68,0,0,0,24,0,0,0,45,0,0,0,52,76,255,255,20,0,0,0,70,0,0,0,52,0,0,0,72,0,0,0,24,0,0,0,4,0,0,0,1,0,0,0,1,0,0,0,24,0,0,0,8,0,0,0,4,0,0,0,255,255,255,255,1,0,0,0,24,0,0,0,8,0,0,0,17,0,0,0,59,59,59,99,111,110,118,50,100,95,55,47,98,105,97,115,49,0,0,0,20,76,255,255,114,252,255,255,0,0,0,5,2,0,0,0,56,0,0,0,44,0,0,0,20,0,0,0,0,0,14,0,20,0,0,0,16,0,12,0,8,0,4,0,14,0,0,0,1,0,0,0,3,0,0,0,1,0,0,0,1,0,0,0,1,0,0,0,68,0,0,0,1,0,0,0,62,0,0,0,220,76,255,255,20,0,0,0,69,0,0,0,52,0,0,0,72,0,0,0,24,0,0,0,4,0,0,0,1,0,0,0,1,0,0,0,24,0,0,0,24,0,0,0,4,0,0,0,255,255,255,255,1,0,0,0,24,0,0,0,24,0,0,0,16,0,0,0,116,102,108,46,109,97,120,95,112,111,111,108,95,50,100,49,0,0,0,0,188,76,255,255,162,251,255,255,0,0,0,1,32,0,0,0,20,0,0,0,4,0,0,0,242,250,255,255,1,0,0,0,1,0,0,0,1,0,0,0,67,0,0,0,3,0,0,0,66,0,0,0,23,0,0,0,44,0,0,0,112,77,255,255,20,0,0,0,68,0,0,0,52,0,0,0,72,0,0,0,24,0,0,0,4,0,0,0,1,0,0,0,1,0,0,0,24,0,0,0,8,0,0,0,4,0,0,0,255,255,255,255,1,0,0,0,24,0,0,0,8,0,0,0,17,0,0,0,59,59,59,99,111,110,118,50,100,95,54,47,98,105,97,115,49,0,0,0,80,77,255,255,54,252,255,255,0,0,0,1,32,0,0,0,20,0,0,0,4,0,0,0,134,251,255,255,1,0,0,0,1,0,0,0,1,0,0,0,66,0,0,0,3,0,0,0,62,0,0,0,22,0,0,0,43,0,0,0,4,78,255,255,20,0,0,0,67,0,0,0,52,0,0,0,72,0,0,0,24,0,0,0,4,0,0,0,1,0,0,0,1,0,0,0,24,0,0,0,4,0,0,0,4,0,0,0,255,255,255,255,1,0,0,0,24,0,0,0,4,0,0,0,16,0,0,0,59,59,99,111,110,118,50,100,95,53,47,98,105,97,115,49,0,0,0,0,228,77,255,255,202,252,255,255,0,0,0,1,32,0,0,0,20,0,0,0,4,0,0,0,26,252,255,255,1,0,0,0,1,0,0,0,1,0,0,0,65,0,0,0,3,0,0,0,64,0,0,0,21,0,0,0,42,0,0,0,152,78,255,255,20,0,0,0,66,0,0,0,52,0,0,0,72,0,0,0,24,0,0,0,4,0,0,0,1,0,0,0,1,0,0,0,24,0,0,0,8,0,0,0,4,0,0,0,255,255,255,255,1,0,0,0,24,0,0,0,8,0,0,0,17,0,0,0,59,59,59,99,111,110,118,50,100,95,52,47,98,105,97,115,49,0,0,0,120,78,255,255,94,253,255,255,0,0,0,1,32,0,0,0,20,0,0,0,4,0,0,0,174,252,255,255,1,0,0,0,1,0,0,0,1,0,0,0,64,0,0,0,3,0,0,0,62,0,0,0,20,0,0,0,41,0,0,0,44,79,255,255,20,0,0,0,65,0,0,0,52,0,0,0,72,0,0,0,24,0,0,0,4,0,0,0,1,0,0,0,1,0,0,0,24,0,0,0,4,0,0,0,4,0,0,0,255,255,255,255,1,0,0,0,24,0,0,0,4,0,0,0,17,0,0,0,59,59,59,99,111,110,118,50,100,95,51,47,98,105,97,115,49,0,0,0,12,79,255,255,242,253,255,255,0,0,0,1,32,0,0,0,20,0,0,0,4,0,0,0,66,253,255,255,1,0,0,0,1,0,0,0,1,0,0,0,63,0,0,0,3,0,0,0,62,0,0,0,19,0,0,0,40,0,0,0,192,79,255,255,20,0,0,0,64,0,0,0,52,0,0,0,72,0,0,0,24,0,0,0,4,0,0,0,1,0,0,0,1,0,0,0,24,0,0,0,4,0,0,0,4,0,0,0,255,255,255,255,1,0,0,0,24,0,0,0,4,0,0,0,17,0,0,0,59,59,59,99,111,110,118,50,100,95,50,47,98,105,97,115,49,0,0,0,208,80,255,255,0,0,14,0,26,0,8,0,12,0,16,0,7,0,20,0,14,0,0,0,0,0,0,5,2,0,0,0,60,0,0,0,48,0,0,0,20,0,0,0,0,0,14,0,24,0,23,0,16,0,12,0,8,0,4,0,14,0,0,0,1,0,0,0,4,0,0,0,1,0,0,0,2,0,0,0,0,0,0,1,1,0,0,0,62,0,0,0,1,0,0,0,61,0,0,0,244,253,255,255,17,0,0,0,0,0,0,17,1,0,0,0,140,80,255,255,20,0,0,0,63,0,0,0,52,0,0,0,68,0,0,0,24,0,0,0,4,0,0,0,1,0,0,0,1,0,0,0,24,0,0,0,24,0,0,0,4,0,0,0,255,255,255,255,1,0,0,0,24,0,0,0,24,0,0,0,15,0,0,0,116,102,108,46,109,97,120,95,112,111,111,108,95,50,100,0,152,81,255,255,0,0,14,0,24,0,8,0,12,0,16,0,7,0,20,0,14,0,0,0,0,0,0,10,1,0,0,0,28,0,0,0,16,0,0,0,4,0,0,0,186,81,255,255,3,0,0,0,1,0,0,0,61,0,0,0,2,0,0,0,60,0,0,0,59,0,0,0,160,254,255,255,2,0,0,0,0,0,0,2,1,0,0,0,56,81,255,255,20,0,0,0,62,0,0,0,52,0,0,0,72,0,0,0,24,0,0,0,4,0,0,0,1,0,0,0,1,0,0,0,50,0,0,0,24,0,0,0,4,0,0,0,255,255,255,255,1,0,0,0,50,0,0,0,24,0,0,0,17,0,0,0,116,102,108,46,99,111,110,99,97,116,101,110,97,116,105,111,110,0,0,0,72,82,255,255,0,0,14,0,20,0,0,0,8,0,12,0,7,0,16,0,14,0,0,0,0,0,0,1,32,0,0,0,20,0,0,0,4,0,0,0,94,255,255,255,2,0,0,0,1,0,0,0,1,0,0,0,60,0,0,0,3,0,0,0,0,0,0,0,18,0,0,0,39,0,0,0,220,81,255,255,20,0,0,0,61,0,0,0,52,0,0,0,68,0,0,0,24,0,0,0,4,0,0,0,1,0,0,0,1,0,0,0,50,0,0,0,16,0,0,0,4,0,0,0,255,255,255,255,1,0,0,0,50,0,0,0,16,0,0,0,15,0,0,0,59,59,59,99,111,110,118,50,100,47,98,105,97,115,49,0,232,82,255,255,0,0,14,0,22,0,0,0,8,0,12,0,7,0,16,0,14,0,0,0,0,0,0,1,44,0,0,0,32,0,0,0,16,0,0,0,0,0,10,0,12,0,0,0,4,0,8,0,10,0,0,0,2,0,0,0,1,0,0,0,1,0,0,0,59,0,0,0,3,0,0,0,0,0,0,0,17,0,0,0,38,0,0,0,12,0,16,0,11,0,0,0,12,0,4,0,12,0,0,0,3,0,0,0,0,0,0,3,1,0,0,0,164,82,255,255,20,0,0,0,60,0,0,0,52,0,0,0,72,0,0,0,24,0,0,0,4,0,0,0,1,0,0,0,1,0,0,0,50,0,0,0,8,0,0,0,4,0,0,0,255,255,255,255,1,0,0,0,50,0,0,0,8,0,0,0,17,0,0,0,59,59,59,99,111,110,118,50,100,95,49,47,98,105,97,115,49,0,0,0,132,82,255,255,174,83,255,255,4,0,0,0,32,0,0,0,193,191,125,189,183,161,103,61,194,17,0,189,33,120,35,188,59,80,247,188,207,163,129,61,131,199,245,59,203,140,142,189,110,83,255,255,16,0,0,0,59,0,0,0,16,0,0,0,36,0,0,0,1,0,0,0,8,0,0,0,16,0,0,0,59,59,99,111,110,118,50,100,95,50,48,47,98,105,97,115,0,0,0,0,232,82,255,255,18,84,255,255,4,0,0,0,128,0,0,0,207,126,35,190,61,78,146,189,219,174,156,189,155,210,0,190,159,249,204,188,194,165,156,61,75,72,38,61,87,94,79,61,115,168,13,62,204,196,205,61,227,83,95,60,85,41,3,189,194,60,197,189,8,201,172,60,96,19,115,189,213,181,3,190,217,10,125,61,96,60,227,189,31,174,160,189,118,108,73,58,108,72,100,189,73,120,136,189,246,197,199,189,213,219,30,189,216,141,22,190,65,171,60,190,76,135,2,189,232,9,129,61,214,78,167,190,78,217,238,59,254,141,183,189,214,35,90,188,50,84,255,255,16,0,0,0,58,0,0,0,16,0,0,0,36,0,0,0,1,0,0,0,32,0,0,0,16,0,0,0,59,59,99,111,110,118,50,100,95,49,57,47,98,105,97,115,0,0,0,0,172,83,255,255,214,84,255,255,4,0,0,0,64,0,0,0,35,97,135,189,61,188,173,61,92,218,141,59,195,96,149,188,43,64,102,188,46,58,225,60,70,169,157,60,109,221,94,61,253,7,48,60,48,42,19,61,232,178,48,189,111,198,226,188,145,251,61,189,141,10,15,61,17,235,255,60,61,27,154,60,182,84,255,255,16,0,0,0,57,0,0,0,16,0,0,0,36,0,0,0,1,0,0,0,16,0,0,0,16,0,0,0,59,59,99,111,110,118,50,100,95,49,56,47,98,105,97,115,0,0,0,0,48,84,255,255,90,85,255,255,4,0,0,0,32,0,0,0,214,139,146,188,87,126,69,61,19,15,174,188,205,119,153,189,77,66,88,60,11,0,160,59,52,8,91,188,240,114,99,61,26,85,255,255,16,0,0,0,56,0,0,0,16,0,0,0,36,0,0,0,1,0,0,0,8,0,0,0,17,0,0,0,59,59,59,99,111,110,118,50,100,95,49,55,47,98,105,97,115,0,0,0,148,84,255,255,190,85,255,255,4,0,0,0,64,0,0,0,59,79,152,61,67,137,0,61,163,206,67,60,62,219,127,188,102,168,54,61,6,103,175,189,187,129,110,61,64,62,209,189,65,247,121,189,32,52,20,188,209,210,196,187,183,241,60,189,226,63,165,189,49,130,75,189,174,84,151,189,211,170,17,189,158,85,255,255,16,0,0,0,55,0,0,0,16,0,0,0,36,0,0,0,1,0,0,0,16,0,0,0,17,0,0,0,59,59,59,99,111,110,118,50,100,95,49,54,47,98,105,97,115,0,0,0,24,85,255,255,66,86,255,255,4,0,0,0,32,0,0,0,102,60,128,189,93,246,213,60,163,237,184,59,77,181,149,60,143,174,0,61,34,78,135,59,81,182,59,189,104,139,207,60,2,86,255,255,16,0,0,0,54,0,0,0,16,0,0,0,36,0,0,0,1,0,0,0,8,0,0,0,17,0,0,0,59,59,59,99,111,110,118,50,100,95,49,53,47,98,105,97,115,0,0,0,124,85,255,255,166,86,255,255,4,0,0,0,32,0,0,0,12,100,237,58,33,66,253,188,8,193,146,189,229,47,9,62,234,117,105,189,5,228,165,189,95,78,19,189,145,4,215,188,102,86,255,255,16,0,0,0,53,0,0,0,16,0,0,0,36,0,0,0,1,0,0,0,8,0,0,0,17,0,0,0,59,59,59,99,111,110,118,50,100,95,49,52,47,98,105,97,115,0,0,0,224,85,255,255,10,87,255,255,4,0,0,0,48,0,0,0,110,136,23,61,89,193,52,60,130,76,18,189,184,158,194,188,94,149,216,188,183,62,178,188,234,45,196,60,100,162,201,186,136,57,112,189,130,249,145,188,79,135,95,189,61,117,178,187,218,86,255,255,16,0,0,0,52,0,0,0,16,0,0,0,36,0,0,0,1,0,0,0,12,0,0,0,16,0,0,0,59,59,99,111,110,118,50,100,95,49,51,47,98,105,97,115,0,0,0,0,84,86,255,255,126,87,255,255,4,0,0,0,48,0,0,0,204,217,213,60,187,117,139,61,209,213,254,59,170,54,161,59,209,108,181,187,99,202,125,61,44,225,144,61,218,236,113,188,212,42,190,61,183,51,166,61,73,37,233,61,73,78,109,60,78,87,255,255,16,0,0,0,51,0,0,0,16,0,0,0,36,0,0,0,1,0,0,0,12,0,0,0,17,0,0,0,59,59,59,99,111,110,118,50,100,95,49,48,47,98,105,97,115,0,0,0,200,86,255,255,242,87,255,255,4,0,0,0,24,0,0,0,48,194,22,60,248,130,217,188,63,190,233,60,146,224,26,61,134,71,68,189,164,252,131,188,170,87,255,255,16,0,0,0,50,0,0,0,16,0,0,0,32,0,0,0,1,0,0,0,6,0,0,0,15,0,0,0,59,59,99,111,110,118,50,100,95,57,47,98,105,97,115,0,32,87,255,255,74,88,255,255,4,0,0,0,24,0,0,0,25,228,158,189,135,87,54,189,213,36,161,189,117,117,173,189,149,164,33,189,1,189,151,189,2,88,255,255,16,0,0,0,49,0,0,0,16,0,0,0,36,0,0,0,1,0,0,0,6,0,0,0,16,0,0,0,59,59,59,99,111,110,118,50,100,95,56,47,98,105,97,115,0,0,0,0,124,87,255,255,166,88,255,255,4,0,0,0,48,0,0,0,233,48,156,189,123,26,59,189,156,223,255,61,74,115,30,61,224,217,41,59,76,202,20,61,134,145,94,187,49,216,32,61,150,78,254,188,242,120,158,60,106,0,52,189,141,44,227,188,118,88,255,255,16,0,0,0,48,0,0,0,16,0,0,0,36,0,0,0,1,0,0,0,12,0,0,0,17,0,0,0,59,59,59,99,111,110,118,50,100,95,49,50,47,98,105,97,115,0,0,0,240,87,255,255,26,89,255,255,4,0,0,0,24,0,0,0,170,80,61,61,229,255,221,60,37,219,50,189,254,135,2,189,74,177,12,61,212,45,160,60,210,88,255,255,16,0,0,0,47,0,0,0,16,0,0,0,36,0,0,0,1,0,0,0,6,0,0,0,17,0,0,0,59,59,59,99,111,110,118,50,100,95,49,49,47,98,105,97,115,0,0,0,76,88,255,255,118,89,255,255,4,0,0,0,32,0,0,0,67,137,120,61,77,199,253,61,58,27,216,61,207,124,201,61,34,12,4,61,75,63,51,190,96,48,161,189,119,211,183,189,54,89,255,255,16,0,0,0,46,0,0,0,16,0,0,0,36,0,0,0,1,0,0,0,8,0,0,0,16,0,0,0,59,59,59,99,111,110,118,50,100,95,55,47,98,105,97,115,0,0,0,0,176,88,255,255,218,89,255,255,4,0,0,0,32,0,0,0,154,101,42,61,158,40,215,61,132,151,17,62,181,66,186,61,102,115,245,60,24,88,40,190,247,101,225,60,224,192,4,190,154,89,255,255,16,0,0,0,45,0,0,0,16,0,0,0,36,0,0,0,1,0,0,0,8,0,0,0,16,0,0,0,59,59,59,99,111,110,118,50,100,95,54,47,98,105,97,115,0,0,0,0,20,89,255,255,62,90,255,255,4,0,0,0,16,0,0,0,0,46,75,189,203,236,197,61,249,109,10,62,68,72,9,62,238,89,255,255,16,0,0,0,44,0,0,0,16,0,0,0,32,0,0,0,1,0,0,0,4,0,0,0,15,0,0,0,59,59,99,111,110,118,50,100,95,53,47,98,105,97,115,0,100,89,255,255,142,90,255,255,4,0,0,0,32,0,0,0,211,18,41,189,249,34,173,61,114,142,209,61,165,30,9,190,42,136,117,189,179,19,165,189,186,198,55,189,187,250,189,61,78,90,255,255,16,0,0,0,43,0,0,0,16,0,0,0,36,0,0,0,1,0,0,0,8,0,0,0,16,0,0,0,59,59,59,99,111,110,118,50,100,95,52,47,98,105,97,115,0,0,0,0,200,89,255,255,242,90,255,255,4,0,0,0,16,0,0,0,254,36,89,190,220,114,26,61,219,249,141,188,22,165,176,60,162,90,255,255,16,0,0,0,42,0,0,0,16,0,0,0,36,0,0,0,1,0,0,0,4,0,0,0,16,0,0,0,59,59,59,99,111,110,118,50,100,95,51,47,98,105,97,115,0,0,0,0,28,90,255,255,70,91,255,255,4,0,0,0,16,0,0,0,160,245,34,59,42,149,131,190,7,155,49,62,232,46,209,60,246,90,255,255,16,0,0,0,41,0,0,0,16,0,0,0,36,0,0,0,1,0,0,0,4,0,0,0,16,0,0,0,59,59,59,99,111,110,118,50,100,95,50,47,98,105,97,115,0,0,0,0,112,90,255,255,154,91,255,255,4,0,0,0,64,0,0,0,223,109,244,189,181,139,245,60,179,59,98,61,129,180,49,189,81,229,158,61,26,118,191,61,185,123,66,62,55,142,249,189,150,34,172,61,64,242,194,59,84,62,34,189,42,11,132,60,228,192,228,61,59,232,178,186,115,19,130,189,131,53,157,60,122,91,255,255,16,0,0,0,40,0,0,0,16,0,0,0,32,0,0,0,1,0,0,0,16,0,0,0,14,0,0,0,59,59,59,99,111,110,118,50,100,47,98,105,97,115,0,0,240,90,255,255,26,92,255,255,4,0,0,0,32,0,0,0,191,173,112,61,248,237,237,189,22,245,158,189,233,235,88,189,191,79,121,190,126,164,85,62,58,215,105,189,132,220,217,58,218,91,255,255,16,0,0,0,39,0,0,0,16,0,0,0,36,0,0,0,1,0,0,0,8,0,0,0,16,0,0,0,59,59,59,99,111,110,118,50,100,95,49,47,98,105,97,115,0,0,0,0,84,91,255,255,126,92,255,255,4,0,0,0,64,5,0,0,74,79,33,190,127,228,134,190,162,22,104,62,132,200,155,190,205,52,147,62,92,237,93,62,66,100,207,189,78,134,20,188,22,229,139,62,146,68,167,190,51,84,162,62,29,99,156,57,23,59,26,190,135,53,96,61,226,150,122,190,95,46,146,190,64,16,55,62,224,239,162,190,18,100,165,62,145,113,120,190,29,227,7,190,117,216,178,189,88,105,153,189,230,5,89,62,26,189,221,189,73,29,93,190,11,159,133,62,10,246,31,62,185,71,171,190,52,49,55,190,162,202,55,190,14,248,138,62,173,242,15,190,14,14,184,190,72,46,176,62,74,251,24,62,159,128,174,190,58,215,181,190,158,33,51,190,89,99,229,189,99,202,117,190,7,113,40,62,51,36,146,190,77,66,212,62,133,88,101,189,2,74,223,61,210,63,133,61,70,75,198,61,5,175,3,190,86,117,96,189,7,83,135,62,245,74,165,62,65,213,65,190,131,37,175,62,27,181,194,62,22,124,110,188,212,8,147,62,205,209,30,61,208,249,32,190,10,44,204,190,250,211,102,190,140,92,35,62,16,175,90,62,60,25,172,61,237,240,178,61,73,36,76,62,65,51,136,62,172,96,82,190,207,133,200,189,70,188,81,189,208,21,214,62,232,158,215,61,98,144,192,61,209,187,224,61,72,164,147,188,201,164,216,189,126,121,243,189,164,33,45,62,253,8,208,61,122,141,178,60,167,186,117,62,31,16,179,190,148,180,141,190,212,25,111,189,168,89,246,61,175,190,140,190,64,169,174,62,216,190,2,62,236,109,93,62,174,115,19,189,37,62,49,62,211,218,222,61,95,190,7,189,230,196,61,190,80,5,104,189,27,230,160,190,197,64,105,189,5,97,13,62,216,206,93,190,42,237,157,190,136,251,21,62,145,116,171,190,180,116,116,62,165,76,53,190,19,206,140,189,241,181,173,190,80,234,169,190,102,83,125,188,147,189,225,186,121,226,244,189,62,225,216,188,14,235,151,189,178,39,202,189,46,82,66,62,144,19,163,61,71,103,136,62,127,136,37,189,100,121,33,190,129,67,67,190,43,196,128,62,97,229,130,190,185,124,171,189,122,83,54,61,239,109,25,190,12,112,19,62,3,172,32,61,211,204,153,62,114,168,48,61,191,254,231,60,80,189,20,62,131,21,152,189,68,99,107,190,28,51,27,187,215,170,132,189,149,241,91,62,254,7,58,62,75,109,80,59,92,47,106,61,135,191,253,189,110,59,27,188,133,225,221,189,217,138,143,189,153,161,140,62,55,105,155,190,37,87,32,62,8,116,27,190,53,235,56,62,107,235,110,62,63,201,37,190,192,169,38,188,73,206,150,190,56,203,138,62,119,197,97,190,104,138,73,62,188,154,28,190,191,71,94,62,65,153,55,190,6,161,153,60,176,3,198,61,164,180,164,61,102,230,164,190,142,148,167,189,127,133,108,62,192,114,110,62,155,22,208,189,154,248,110,190,14,217,118,62,112,52,185,189,37,57,240,189,88,69,28,62,165,244,104,190,126,140,56,62,199,243,100,61,42,116,223,188,232,246,115,190,20,173,149,60,36,169,7,62,191,186,138,188,207,131,157,190,30,190,217,60,72,126,122,62,239,235,58,189,132,76,141,190,24,174,121,62,11,117,198,61,189,110,133,62,209,1,81,190,96,186,68,62,95,208,54,189,20,196,71,190,16,19,12,60,8,213,87,62,21,60,163,190,141,144,186,190,64,240,248,62,133,114,37,62,107,97,172,62,151,198,7,190,80,102,9,62,64,2,100,61,61,247,73,62,149,45,220,189,119,79,15,190,156,17,15,62,236,199,139,190,177,134,171,62,17,185,186,189,59,109,226,190,22,99,163,190,128,234,72,190,208,229,66,62,45,39,238,188,236,105,241,188,158,232,159,62,193,107,246,190,205,248,172,62,228,215,183,62,65,91,4,61,165,149,133,62,164,45,46,190,64,243,76,190,68,92,214,61,124,191,155,62,2,233,163,62,100,185,52,190,196,169,195,189,245,121,42,62,53,12,7,63,176,211,140,187,141,190,126,190,173,145,165,190,56,72,121,190,143,73,166,62,150,29,114,190,185,12,151,61,239,44,181,190,27,143,51,61,86,72,164,190,203,132,55,62,13,221,144,190,56,178,41,190,234,177,192,61,44,36,14,62,72,182,186,60,242,254,129,62,26,189,181,190,37,112,127,62,176,110,48,62,214,62,133,190,90,50,187,62,181,98,179,61,12,186,208,189,79,184,0,190,80,8,48,190,20,210,105,190,111,47,42,62,43,37,39,61,199,15,152,190,201,194,75,62,137,3,17,190,199,110,56,190,151,94,227,58,62,244,215,62,239,224,17,190,199,154,171,61,171,248,173,62,210,85,147,62,133,64,68,62,196,103,82,190,172,2,248,190,125,4,221,62,89,173,8,190,2,127,182,62,38,118,143,62,162,197,114,190,229,228,248,62,35,57,139,190,232,147,168,61,225,193,134,190,170,65,104,62,192,249,129,62,184,12,141,62,93,104,157,190,230,89,17,190,64,188,128,62,49,205,142,61,70,198,58,62,60,34,31,61,76,169,122,190,236,77,222,62,226,204,16,189,25,243,21,191,57,230,167,189,144,29,145,61,170,239,93,62,153,230,167,190,34,81,240,189,26,138,223,61,91,62,64,61,235,104,137,62,204,11,4,60,129,244,24,190,41,80,222,61,118,242,44,190,6,140,97,189,147,173,117,190,32,121,95,189,58,193,26,190,189,239,135,62,231,3,165,190,86,18,127,189,30,46,193,62,12,125,12,62,186,15,183,189,153,131,30,191,121,187,43,62,3,217,143,190,163,160,10,61,215,217,111,188,128,195,55,62,152,121,198,189,225,218,176,189,119,37,243,189,244,151,232,188,48,196,196,62,31,200,47,190,204,197,210,189,44,150,135,190,116,139,105,62,156,111,207,190,5,16,72,190,97,3,202,60,150,223,50,190,18,108,153,61,39,122,181,62,71,160,143,190,94,97,255,255,16,0,0,0,38,0,0,0,28,0,0,0,44,0,0,0,4,0,0,0,8,0,0,0,1,0,0,0,1,0,0,0,42,0,0,0,14,0,0,0,115,116,100,46,99,111,110,115,116,97,110,116,51,49,0,0,224,96,255,255,10,98,255,255,4,0,0,0,0,24,0,0,21,74,45,190,106,237,34,190,44,104,20,190,124,204,167,61,181,96,54,62,200,70,17,190,107,119,39,61,235,56,55,189,0,190,70,190,9,206,94,61,103,126,102,62,75,71,125,62,198,45,244,61,129,186,253,60,176,172,117,190,74,170,55,189,209,132,145,61,37,208,44,190,169,23,243,189,175,145,186,61,6,255,194,188,131,240,87,62,15,57,218,61,146,212,231,61,27,221,94,189,254,105,206,60,96,89,141,189,142,35,60,61,249,99,33,188,137,240,29,190,44,225,56,189,213,31,49,62,120,85,221,61,246,244,246,189,164,221,247,188,188,91,82,62,7,19,171,61,172,132,18,60,138,122,181,61,76,206,203,60,95,244,33,190,27,214,165,190,92,100,34,190,217,78,152,188,209,86,54,62,250,130,175,60,173,217,210,185,61,103,104,190,91,199,59,62,59,72,21,190,194,245,239,61,149,75,14,190,223,67,102,62,246,35,185,61,190,105,125,189,35,93,18,190,25,9,1,62,139,4,145,61,6,59,182,189,253,190,219,61,85,48,64,61,181,124,167,189,27,45,87,61,201,214,163,189,183,183,18,189,243,2,202,61,94,36,6,189,127,6,84,62,129,229,7,62,173,67,240,189,137,254,194,59,48,54,95,189,187,101,4,62,236,216,138,190,217,126,148,60,76,11,167,189,148,138,90,61,5,229,29,62,78,168,184,189,5,111,64,190,233,140,128,188,204,3,200,61,129,145,55,60,73,70,62,190,238,91,209,189,88,194,239,189,131,44,30,190,177,224,51,190,143,173,247,61,131,16,1,62,182,167,54,62,216,201,191,61,186,244,52,62,20,206,18,62,208,193,37,190,166,25,132,188,34,165,77,62,35,174,151,189,87,141,175,188,7,66,110,190,170,113,14,190,230,29,133,190,53,140,4,190,59,69,25,189,125,69,3,60,83,207,97,190,78,125,188,61,212,56,214,60,159,32,197,188,33,221,96,189,119,117,19,190,92,101,67,60,224,142,37,189,151,68,53,62,182,206,54,62,153,183,135,61,16,222,85,62,180,217,15,62,165,221,9,62,187,231,108,61,152,85,37,61,48,217,72,62,170,237,21,62,152,174,101,187,45,76,136,61,51,89,175,59,16,60,27,189,90,244,143,188,62,83,227,189,86,96,61,60,85,36,171,189,79,75,104,62,108,89,10,190,91,115,22,62,43,197,111,62,49,8,194,189,224,20,8,190,36,103,99,62,80,194,28,190,250,67,13,190,224,73,234,61,223,100,196,60,227,58,86,61,65,246,136,61,32,133,32,189,100,112,151,61,234,102,139,190,84,169,26,62,103,175,145,60,150,176,45,62,50,99,86,190,167,123,159,189,20,99,52,190,18,182,133,62,228,56,19,62,29,7,171,60,242,87,4,190,73,39,188,190,101,142,27,188,207,82,183,61,141,64,97,62,57,233,129,62,225,104,214,61,181,193,193,61,83,230,34,189,115,176,135,62,136,35,156,60,176,8,28,189,206,188,116,190,232,0,15,61,100,188,16,62,253,17,91,62,12,23,15,62,59,240,122,62,168,168,132,61,212,167,78,189,254,31,104,190,247,234,71,188,17,132,184,189,218,163,21,190,28,204,186,62,48,81,160,188,232,135,134,190,175,5,146,190,103,22,197,189,209,242,7,190,177,139,139,61,118,119,11,62,19,99,106,189,129,171,151,60,9,252,67,62,230,166,195,61,250,20,15,61,243,43,228,60,190,234,59,61,157,102,183,60,42,44,203,189,33,246,91,190,239,193,255,189,54,181,42,61,113,121,82,60,147,210,91,190,71,28,46,190,32,51,222,61,102,196,209,188,80,164,148,189,145,181,171,61,24,254,166,189,197,212,145,189,130,69,142,190,161,123,135,61,197,227,44,62,242,125,247,188,130,235,184,61,22,13,85,61,24,38,107,190,36,153,247,61,157,107,214,60,59,223,22,190,245,213,170,60,138,135,28,190,204,204,134,62,165,160,3,62,118,129,71,61,250,240,183,61,40,136,15,190,233,58,223,62,149,110,28,62,250,34,46,190,191,173,204,189,163,238,131,189,60,126,233,189,150,217,44,190,250,239,69,190,160,19,177,60,87,68,169,190,28,101,242,189,217,30,79,189,232,90,66,190,253,4,163,188,148,67,137,61,180,214,75,62,249,137,65,189,154,166,9,188,251,40,9,188,29,155,238,189,214,71,67,188,66,104,168,190,32,78,192,189,220,100,210,190,80,240,209,60,224,114,89,190,239,196,188,187,136,66,63,61,39,45,142,190,125,103,155,190,120,86,114,190,122,54,250,188,48,70,118,190,10,54,34,61,127,249,20,190,130,92,18,190,69,234,70,189,222,153,218,61,174,46,17,61,230,194,155,61,36,73,121,190,164,247,29,190,209,112,60,62,83,54,175,61,179,42,247,188,15,25,8,188,168,36,86,60,61,58,142,190,37,71,161,189,31,102,69,189,243,132,93,60,142,155,15,62,84,65,3,62,73,184,22,62,153,178,36,190,4,195,24,62,62,145,232,60,158,33,145,188,96,14,39,61,249,193,22,189,191,156,5,189,201,144,75,61,48,50,69,62,225,72,48,61,107,115,4,190,241,44,185,189,218,85,77,60,40,162,58,62,202,54,240,189,61,253,135,189,52,178,77,189,172,184,58,61,161,248,21,62,194,222,108,60,174,151,182,189,222,58,47,62,195,22,245,60,108,49,114,61,35,130,244,61,28,164,192,189,240,65,43,190,218,192,213,186,95,53,211,61,91,191,7,190,154,61,151,189,105,16,241,188,54,206,9,189,132,227,18,61,150,191,135,189,238,25,244,61,156,146,0,190,167,158,22,62,129,217,12,62,158,131,106,190,178,202,179,59,29,93,167,61,201,229,0,62,110,37,77,62,19,175,148,58,174,75,19,190,165,181,80,62,156,234,128,62,149,143,86,62,156,132,4,190,173,189,103,189,126,223,132,62,161,255,79,62,228,18,115,190,119,36,42,189,178,73,29,189,72,175,55,190,212,219,140,62,152,2,126,62,173,229,242,60,102,27,168,61,164,62,189,189,219,70,223,62,186,40,168,188,157,235,129,188,42,119,52,188,138,83,81,190,74,178,12,61,126,223,22,189,198,94,39,62,64,180,20,190,129,33,148,58,111,208,166,188,165,166,50,190,58,110,0,63,8,222,210,61,18,159,44,188,244,208,207,61,57,65,85,62,226,188,228,61,18,11,3,190,41,254,35,190,238,120,249,61,83,38,0,190,194,62,192,189,6,196,12,61,52,244,105,60,72,166,134,61,205,216,172,190,119,226,71,190,216,25,103,62,17,52,28,62,8,37,62,190,246,18,166,61,164,67,16,188,51,165,29,62,154,213,142,190,100,90,139,190,110,59,246,60,167,146,194,61,65,28,163,189,43,114,8,61,72,182,210,189,14,30,240,61,63,128,140,61,229,237,146,61,14,33,8,190,121,100,90,190,93,154,239,189,151,135,214,61,104,101,153,61,77,131,107,189,30,174,16,190,28,80,134,61,223,125,174,188,162,27,141,190,85,35,225,61,160,135,217,189,114,11,232,189,213,222,64,189,164,123,235,61,194,75,96,61,32,238,137,190,209,41,73,60,175,132,210,189,156,69,157,187,240,224,49,62,194,180,147,61,147,28,62,190,235,132,226,61,100,83,197,60,167,179,224,189,30,6,72,190,57,54,6,62,226,26,5,62,149,0,109,61,223,5,45,190,84,37,252,189,174,88,233,61,121,165,105,60,200,22,105,190,142,93,176,188,47,249,42,61,130,182,231,61,184,124,79,62,219,194,86,62,58,57,210,189,117,47,93,61,76,164,113,190,126,150,39,61,108,101,90,59,192,57,172,189,144,0,128,190,94,79,59,62,132,17,143,189,240,248,92,190,57,228,35,189,191,166,24,60,66,86,189,61,0,69,212,61,163,150,104,189,57,116,110,188,201,234,25,62,76,60,77,190,20,76,99,188,163,142,179,61,197,191,33,62,76,207,15,190,47,238,75,190,9,226,217,61,53,159,246,61,67,178,209,61,156,43,246,188,175,119,44,62,193,27,8,189,195,107,90,188,51,17,188,61,190,20,112,189,161,187,23,62,232,178,0,62,118,94,237,189,82,247,168,190,191,81,158,62,82,19,19,61,167,173,140,189,22,148,51,190,130,109,25,62,10,61,196,188,173,109,208,189,146,16,129,62,119,141,203,62,10,160,191,62,19,30,243,189,245,171,43,190,69,194,139,190,113,167,43,190,133,67,206,189,238,81,56,61,219,229,3,62,86,114,55,190,68,98,230,189,50,238,226,61,232,101,11,61,107,62,228,61,76,131,222,189,255,127,136,62,64,175,48,190,95,228,151,189,212,220,114,62,163,88,197,188,62,198,167,61,120,141,8,61,71,46,82,62,54,73,227,189,175,116,27,62,233,230,129,62,248,250,170,61,47,33,211,189,159,116,88,189,50,88,161,61,146,141,4,62,222,80,158,189,248,212,19,62,57,60,34,62,242,94,169,61,185,14,5,59,181,52,90,190,129,176,186,60,131,118,13,190,176,158,161,189,191,67,252,61,235,207,6,61,125,38,36,190,96,149,230,60,18,197,134,62,97,167,221,61,8,111,160,62,165,97,93,62,171,109,102,190,103,140,141,61,82,9,32,189,64,195,182,61,59,160,5,62,105,168,70,62,171,225,90,62,196,246,234,189,66,245,2,61,209,238,45,62,250,100,130,188,239,169,128,188,71,128,103,190,90,97,53,61,141,85,173,61,200,218,65,190,155,9,44,62,219,128,39,62,235,242,17,61,36,115,108,61,5,228,126,190,100,240,95,62,30,241,227,189,254,5,160,60,225,128,2,188,135,236,197,189,228,153,147,59,47,200,89,61,4,48,45,190,29,136,213,189,61,151,221,188,35,131,16,62,251,33,92,61,24,248,48,190,41,120,166,61,111,152,209,189,185,211,86,188,124,76,7,190,99,22,224,189,145,121,134,189,13,174,148,189,245,129,246,189,112,60,137,190,10,136,174,59,254,81,154,188,185,19,56,189,93,250,212,61,123,102,37,62,163,38,88,62,202,236,120,61,10,1,52,62,235,165,155,190,95,64,105,189,194,99,158,60,0,161,253,61,173,235,29,62,64,0,65,62,190,65,21,190,117,105,158,189,39,59,252,189,123,250,43,189,136,182,250,61,195,39,63,62,108,225,78,61,214,143,207,61,49,74,55,62,63,51,159,61,255,238,146,190,74,96,233,61,250,241,56,189,53,196,12,62,19,104,87,61,97,178,173,189,158,148,144,190,26,221,83,61,154,223,86,60,112,18,243,188,215,139,215,61,195,198,13,62,101,234,210,189,230,137,6,190,175,20,77,187,14,110,190,61,128,189,143,188,116,56,153,62,149,238,77,189,96,129,234,189,8,101,29,62,66,66,163,189,249,159,32,59,45,198,93,189,44,153,150,190,228,131,167,189,184,136,59,62,246,83,76,189,169,151,4,62,99,217,181,188,234,122,29,189,19,212,28,62,220,173,71,189,41,78,106,61,129,34,163,189,10,221,141,60,137,77,134,190,114,249,142,189,192,134,24,191,165,140,173,62,15,20,126,190,252,173,208,189,176,203,60,62,173,136,79,62,57,171,26,190,111,176,33,190,252,160,196,189,54,80,175,60,123,10,221,61,153,193,4,62,217,10,167,189,63,152,216,61,22,98,26,62,13,156,70,61,146,243,217,61,243,55,61,58,195,118,37,188,253,83,133,190,54,237,244,60,205,143,42,62,10,197,62,190,177,62,140,61,28,160,129,60,115,229,46,62,22,191,49,189,239,120,49,190,195,127,48,190,206,94,63,62,176,21,25,62,110,159,33,190,208,253,40,60,147,87,50,190,18,76,77,190,134,140,90,61,241,5,140,188,237,174,105,60,8,241,134,189,252,240,202,61,252,170,222,61,111,19,196,61,194,149,34,62,122,17,56,190,51,130,209,61,254,161,128,61,116,52,58,186,33,94,2,190,30,225,245,189,100,60,198,188,143,230,183,60,65,61,212,189,229,161,21,62,161,250,124,190,204,218,62,62,139,188,10,190,211,242,30,61,57,241,18,62,106,228,202,61,181,43,52,189,23,211,134,189,58,33,49,190,87,140,58,190,167,96,238,60,22,63,89,189,65,143,67,61,117,197,182,61,76,87,109,61,187,44,52,62,104,130,47,190,182,181,210,188,199,58,21,189,198,50,146,188,15,8,13,62,117,158,52,62,128,94,190,189,173,135,80,190,187,208,10,189,48,62,64,189,104,80,209,189,105,66,17,189,235,47,215,61,227,190,187,61,29,31,132,190,24,52,49,189,152,205,123,189,185,209,145,61,238,107,27,189,5,183,82,189,46,160,41,62,123,169,75,190,7,251,134,62,20,223,173,189,250,116,15,62,199,38,213,61,25,12,61,62,117,204,54,62,204,0,246,189,110,170,55,190,222,251,30,190,210,86,98,62,161,0,73,188,108,94,5,190,220,161,4,61,108,130,64,61,67,204,160,61,28,195,192,188,64,234,163,61,181,105,232,61,145,216,209,60,109,85,171,60,90,110,67,61,250,83,196,188,64,82,140,60,41,26,91,61,39,20,81,61,22,152,6,61,183,44,99,189,105,214,199,189,223,242,128,61,94,213,85,190,231,116,230,188,109,188,179,189,46,102,200,61,180,246,75,62,24,70,240,189,237,192,70,62,77,57,135,189,118,159,43,59,195,228,39,62,7,247,189,190,200,133,234,188,30,49,90,61,134,227,249,60,138,103,183,188,195,90,46,190,153,72,204,189,100,55,19,190,146,113,207,190,222,246,167,190,160,215,184,189,182,90,68,60,72,22,240,189,184,152,125,189,86,66,193,190,98,94,3,190,232,236,76,61,99,205,209,60,207,136,48,62,17,8,47,190,17,123,177,61,68,168,84,62,204,142,214,61,39,233,40,190,177,228,84,62,89,176,103,189,149,162,118,58,43,247,159,59,172,190,12,190,56,211,1,190,93,13,138,61,109,150,117,190,16,54,200,187,96,4,139,61,29,213,181,189,191,69,156,189,85,131,116,189,76,180,8,190,110,104,208,189,66,144,196,61,201,169,14,62,146,42,37,62,232,168,23,190,74,144,243,189,190,82,51,62,140,157,217,189,249,210,242,61,19,85,113,61,31,104,12,61,241,59,235,61,23,100,98,189,64,226,51,62,182,221,79,190,204,17,201,188,171,235,135,190,72,131,47,190,106,227,70,61,88,41,158,62,199,34,77,189,30,116,85,62,254,149,128,62,188,77,133,190,63,110,200,60,110,26,121,189,226,169,247,60,152,113,134,60,106,0,215,189,121,158,115,186,180,43,4,189,160,45,15,189,32,12,68,190,175,110,177,61,192,204,136,190,240,227,12,188,153,214,11,189,245,173,224,61,220,83,170,61,254,168,19,190,108,138,226,61,9,139,70,62,64,176,239,60,80,141,183,189,190,11,142,59,243,130,8,189,72,243,32,190,212,100,6,190,72,113,31,190,34,189,217,189,202,91,244,189,227,117,4,62,104,18,65,62,168,130,168,60,152,152,225,189,152,136,119,61,96,196,116,190,36,212,181,61,6,44,23,190,117,77,89,62,50,212,43,190,91,193,85,62,95,196,190,61,0,24,247,189,188,79,28,190,137,7,151,189,254,75,159,61,134,99,166,60,20,45,1,61,235,111,138,61,128,183,204,60,117,56,59,190,233,199,84,190,254,178,132,188,208,234,0,190,2,17,52,60,21,208,88,190,97,51,159,188,226,55,10,59,178,125,138,190,22,171,208,61,207,148,23,62,153,45,42,189,252,182,176,61,35,115,169,61,73,126,88,188,169,85,26,62,46,181,178,189,234,51,49,61,142,184,21,190,57,89,28,61,26,96,233,189,89,236,206,61,80,94,248,61,157,39,250,189,178,184,150,189,95,52,18,190,132,197,17,62,56,170,13,190,119,66,246,59,168,184,160,189,53,137,233,61,87,19,155,61,46,168,14,190,22,100,8,190,184,213,49,62,177,66,20,60,150,54,43,190,174,230,155,61,5,248,98,62,66,13,26,59,237,115,208,188,215,122,55,190,35,241,13,190,46,68,172,189,137,153,21,62,27,198,10,190,208,110,227,61,221,26,17,190,147,163,11,190,188,174,198,61,132,151,136,189,221,129,208,60,30,54,194,188,123,236,194,189,216,80,34,190,95,186,17,189,158,91,247,189,7,4,13,62,51,88,240,189,199,170,43,61,206,148,10,190,49,211,15,62,37,9,18,190,197,60,180,61,241,26,138,189,170,199,33,190,62,180,181,189,83,28,187,61,94,222,25,190,127,55,232,61,135,167,44,61,13,9,181,188,98,76,199,61,17,101,241,61,236,235,9,62,216,37,19,189,36,46,220,61,254,209,53,61,189,156,226,189,145,234,129,189,14,34,177,189,33,144,79,189,222,165,53,62,6,5,210,190,248,13,171,62,249,248,159,62,84,63,60,61,165,113,48,190,210,106,58,62,93,184,76,62,242,125,194,188,52,92,218,189,16,85,139,188,217,150,164,190,183,28,96,190,69,50,73,190,196,147,208,189,148,250,131,190,38,189,219,61,198,211,72,189,161,242,210,61,157,68,192,189,177,190,96,60,55,94,7,190,224,204,71,61,125,213,186,189,42,83,30,190,84,115,118,61,162,78,219,61,153,85,47,190,85,122,131,60,148,141,4,190,241,0,90,189,79,232,47,57,13,44,179,61,146,225,62,60,182,182,43,59,226,147,228,60,230,152,218,187,57,223,203,61,125,217,38,190,249,98,120,190,37,25,110,62,209,229,24,190,63,184,57,62,61,143,53,62,138,41,94,62,246,95,58,188,97,141,62,190,94,98,40,190,222,17,27,62,79,184,201,61,171,226,47,190,95,153,32,189,66,5,22,60,204,250,96,189,6,104,155,189,33,93,45,62,57,239,230,189,18,140,82,190,199,204,69,62,184,154,183,61,127,130,77,61,225,67,4,62,131,93,141,189,79,83,15,190,72,63,160,189,9,209,56,60,181,20,187,61,23,9,32,190,111,187,26,61,39,216,80,62,113,228,155,59,18,123,84,61,172,163,85,62,215,87,226,60,237,78,243,60,249,22,10,190,49,156,14,62,163,211,2,62,35,134,40,190,220,165,155,189,145,2,14,61,37,57,103,61,217,41,17,189,137,85,206,189,124,12,178,189,163,8,84,189,178,224,81,190,3,44,253,189,226,49,32,189,247,107,146,190,164,108,248,189,101,57,241,61,143,28,22,189,247,91,15,188,67,199,4,190,7,102,27,189,149,146,225,61,46,141,13,62,48,71,141,189,180,137,188,189,208,190,212,61,40,201,125,61,1,253,48,190,13,68,48,190,219,136,213,188,165,217,213,60,247,166,11,190,139,94,222,61,93,206,108,61,220,53,198,189,105,188,2,190,107,179,10,190,228,59,99,190,127,15,138,61,228,36,141,190,63,40,237,61,206,80,157,60,108,89,47,62,67,127,165,189,221,35,143,61,59,154,33,190,9,7,40,62,169,63,205,62,162,70,102,188,236,118,139,61,128,198,136,189,106,43,184,189,216,195,159,189,103,228,145,188,151,46,146,60,45,226,170,59,254,176,33,60,163,222,245,189,128,230,21,62,203,33,30,62,193,119,18,188,133,164,65,190,233,217,36,190,183,13,7,61,133,185,149,59,9,165,111,62,40,118,134,190,135,214,12,190,208,255,50,62,64,84,56,62,162,222,121,190,46,97,199,61,153,13,92,61,36,16,175,62,149,1,71,189,190,218,118,189,67,78,140,60,100,189,148,190,132,184,90,61,31,120,123,62,81,175,121,187,242,224,136,62,195,206,60,190,218,140,212,61,146,126,134,62,249,94,208,59,108,199,206,189,110,53,125,190,110,211,205,61,143,182,117,189,89,6,128,190,210,88,134,61,248,127,43,189,110,71,90,189,160,83,231,189,203,132,152,190,107,73,16,190,89,236,9,189,100,3,12,60,1,105,46,190,169,233,22,61,45,105,198,61,50,113,130,190,236,34,60,189,123,154,96,62,66,208,45,187,156,222,52,189,187,9,2,189,186,35,229,61,57,159,30,62,143,16,218,188,231,185,11,61,60,254,11,190,58,33,245,189,11,217,224,61,54,36,236,188,120,137,8,62,200,11,139,61,32,214,150,190,240,212,57,62,248,7,16,189,88,219,237,188,98,202,174,189,100,62,184,61,9,127,144,189,175,109,224,189,46,225,52,190,200,226,81,190,212,112,250,60,185,119,183,189,39,0,78,190,56,79,15,190,136,64,41,190,62,60,7,61,180,122,213,60,153,55,75,62,40,74,223,189,210,113,171,62,135,197,147,61,191,158,247,189,253,175,56,190,81,219,230,189,7,236,225,61,173,85,225,62,0,74,79,61,137,91,64,189,144,136,127,62,60,165,30,190,253,134,19,62,179,217,4,62,214,145,21,190,25,58,13,190,188,16,247,189,60,173,212,61,234,76,140,61,131,253,9,188,36,253,186,61,207,120,28,62,21,147,51,190,223,154,209,61,51,101,181,188,143,210,74,62,29,107,40,190,83,161,0,190,26,146,137,60,58,65,30,62,49,7,16,61,192,195,174,190,115,143,31,62,167,157,220,61,127,173,197,61,11,164,30,62,190,177,92,62,178,62,189,61,54,132,127,190,248,249,77,62,178,8,143,61,6,38,6,62,126,51,117,190,207,182,15,190,226,252,175,190,41,198,84,189,5,156,88,189,223,164,61,190,108,153,112,190,129,149,182,60,196,9,70,189,63,137,6,61,46,125,204,61,69,34,199,188,253,177,152,60,109,201,50,190,93,93,179,61,174,25,82,60,170,253,50,61,65,72,204,188,76,93,206,189,135,144,18,61,151,163,169,189,185,247,234,61,121,64,196,189,243,241,25,190,0,156,122,61,239,134,6,61,1,98,137,189,18,164,5,188,223,117,150,61,133,82,249,189,14,229,214,189,227,53,141,61,180,55,212,60,156,98,17,61,240,87,228,188,241,53,184,61,56,209,130,190,129,240,41,62,110,55,151,62,251,24,23,190,187,135,236,189,138,25,150,61,212,94,2,61,48,192,198,61,177,127,203,61,1,113,149,60,28,189,102,189,205,174,2,190,193,187,126,60,206,45,54,60,242,21,240,61,174,61,192,61,23,240,113,189,146,207,131,189,66,213,230,61,231,216,125,62,33,138,151,59,234,122,21,62,145,11,215,189,155,70,50,62,70,199,66,62,163,108,226,61,90,123,199,61,195,30,4,190,196,44,60,190,228,91,62,62,154,112,88,190,62,244,4,62,185,210,43,190,2,29,216,61,149,149,142,61,240,121,169,189,105,119,184,59,78,33,83,61,229,64,131,189,241,109,203,60,112,33,27,190,232,50,18,62,111,101,96,189,160,96,224,189,126,34,153,61,46,48,7,190,173,247,54,189,179,70,50,190,252,164,20,187,207,37,213,190,51,194,144,189,188,192,188,61,153,7,128,189,146,236,46,61,227,69,55,190,220,31,141,187,253,83,55,188,219,41,192,61,133,172,1,61,241,106,52,189,129,228,140,189,102,7,155,59,8,183,171,189,229,245,88,62,55,112,176,189,178,39,192,189,170,153,44,190,53,241,89,61,152,212,11,61,147,62,24,190,153,209,130,190,221,153,140,60,16,171,202,190,117,122,125,62,124,246,251,189,166,80,220,61,147,51,200,61,34,138,82,190,125,179,140,189,210,190,29,62,43,38,206,61,4,110,10,190,6,49,195,189,82,57,128,190,101,157,235,61,57,41,210,60,117,20,73,62,232,220,133,60,36,177,81,62,28,126,130,190,162,244,249,61,21,39,132,61,96,233,115,60,218,88,168,61,85,205,41,188,155,51,183,189,160,181,224,189,61,132,24,190,253,0,230,60,90,198,97,62,8,225,133,62,149,39,56,61,163,228,170,61,124,241,32,62,174,247,172,189,49,83,43,190,232,243,44,62,134,18,181,189,191,158,35,62,142,29,245,60,22,162,14,188,121,77,192,189,145,172,210,188,168,86,129,189,232,23,30,61,191,114,14,189,143,174,174,187,99,206,224,60,105,104,16,190,252,246,72,190,177,21,175,60,47,119,136,61,113,85,175,60,74,129,154,189,222,149,64,190,32,203,44,62,229,103,7,62,116,206,135,189,151,35,77,190,32,254,207,189,61,225,37,189,227,157,94,190,7,108,193,61,81,123,20,62,230,245,109,61,195,238,184,59,16,48,52,62,147,143,241,189,29,234,162,189,163,68,5,189,66,53,105,190,241,223,8,190,29,20,30,62,25,9,55,189,83,11,38,61,25,240,177,187,79,69,117,189,122,249,143,61,153,244,74,62,205,102,67,190,14,254,29,190,210,213,153,61,88,107,111,189,69,205,56,60,68,30,237,61,202,58,130,62,34,140,173,189,100,233,162,61,242,220,173,189,166,135,15,61,108,69,18,190,98,113,160,61,107,113,201,189,53,10,28,62,94,130,24,187,103,1,134,189,240,134,59,190,171,114,36,62,89,96,53,190,183,24,52,62,237,81,28,190,1,135,184,189,147,216,14,190,241,123,90,188,8,132,63,61,225,245,238,189,130,103,183,61,9,139,151,190,207,2,108,60,227,89,198,61,178,53,40,190,19,255,10,190,134,73,32,62,226,79,102,190,230,245,126,189,231,28,9,189,100,115,216,61,197,112,136,189,130,106,134,60,45,142,26,189,137,224,82,188,177,170,117,61,244,137,157,190,234,184,220,59,239,252,132,61,57,146,10,62,111,87,15,190,90,55,2,62,134,19,167,61,186,167,11,62,8,169,122,188,84,213,123,189,95,149,239,187,181,113,154,189,73,15,236,189,222,234,187,189,22,18,236,61,71,48,88,189,202,15,155,62,3,105,190,61,110,140,49,62,137,227,221,189,43,208,68,62,189,13,133,62,183,184,76,62,221,119,108,188,16,243,55,189,118,25,5,62,224,135,1,63,196,37,169,62,217,16,232,58,121,210,57,190,125,60,232,60,67,255,53,62,158,82,154,189,49,64,9,62,7,176,103,62,92,138,169,189,217,32,201,61,135,106,235,61,96,157,115,189,241,194,179,61,130,104,40,190,4,243,38,190,241,251,240,62,102,141,246,61,60,50,127,189,172,59,6,62,10,243,166,189,183,189,49,190,219,146,56,190,24,109,163,189,149,233,151,62,191,143,192,189,119,119,68,189,51,235,40,62,221,146,229,189,239,129,190,189,61,135,1,190,219,52,146,187,208,82,187,62,246,23,4,62,88,153,227,61,196,34,11,60,254,74,2,61,187,144,3,190,156,155,216,61,56,6,2,190,103,153,137,189,116,59,56,190,126,159,233,188,94,90,57,190,64,65,9,190,142,24,32,188,187,214,186,61,187,91,174,62,232,218,59,190,164,226,122,61,158,208,149,190,8,20,194,61,5,228,41,190,14,59,20,62,4,91,225,188,87,188,132,189,51,90,215,189,52,55,129,61,26,245,131,62,137,23,73,62,215,47,210,59,252,227,94,62,103,41,21,190,227,91,216,189,99,131,36,62,45,227,66,62,112,64,197,187,154,92,22,62,76,78,12,190,25,226,164,189,127,199,2,61,201,64,182,60,19,37,185,189,145,36,170,186,120,47,120,62,102,74,169,61,8,236,128,189,138,215,239,61,198,115,198,61,9,173,92,62,227,82,238,61,160,233,19,189,9,21,118,190,23,216,89,62,137,157,222,189,170,121,255,255,16,0,0,0,37,0,0,0,28,0,0,0,44,0,0,0,4,0,0,0,32,0,0,0,1,0,0,0,3,0,0,0,16,0,0,0,14,0,0,0,115,116,100,46,99,111,110,115,116,97,110,116,51,48,0,0,44,121,255,255,86,122,255,255,4,0,0,0,0,6,0,0,21,239,194,62,77,78,9,62,139,55,108,62,132,141,236,61,63,35,224,189,226,201,131,190,194,242,8,60,37,190,31,190,34,255,144,189,100,25,33,190,108,83,7,190,73,41,46,62,78,172,140,190,48,3,243,61,148,198,141,61,148,197,9,190,160,168,14,190,140,78,52,190,172,24,145,61,78,160,68,190,23,139,165,190,76,143,190,59,107,7,244,189,9,50,37,62,77,250,116,62,168,84,91,62,159,45,252,189,250,74,79,62,193,104,36,62,138,194,12,62,250,204,180,61,205,233,53,61,186,238,227,188,155,59,161,60,168,65,48,190,150,30,143,190,210,181,154,61,39,163,21,187,134,24,110,190,25,230,253,189,133,133,230,61,14,143,181,190,187,127,140,61,113,164,98,62,55,15,89,189,13,35,176,62,5,96,243,189,89,1,255,61,142,147,51,190,201,231,225,186,200,8,81,190,44,37,80,190,176,34,25,62,58,38,173,190,65,4,39,190,199,173,169,61,211,56,62,190,236,118,140,190,93,242,168,189,168,155,126,62,77,59,51,62,53,120,242,61,121,75,113,189,95,239,17,190,161,26,56,62,34,219,4,62,204,114,2,61,105,193,160,190,79,41,176,62,33,43,62,190,81,81,137,190,255,156,131,62,103,135,59,190,242,37,60,62,232,236,48,189,63,226,151,190,34,41,7,189,251,188,150,61,70,83,207,61,21,86,131,62,49,0,42,62,60,159,6,62,44,238,145,190,17,74,98,62,21,101,130,190,239,230,67,190,75,74,6,190,134,44,192,61,249,250,81,189,179,97,138,62,70,176,73,61,130,195,163,190,111,90,45,190,219,186,164,190,88,173,111,62,8,46,36,62,169,232,129,62,194,90,206,61,247,109,22,62,196,239,216,61,182,132,165,62,173,219,183,189,164,180,198,190,8,64,32,62,18,98,130,190,73,205,153,189,168,117,14,189,198,152,35,188,242,238,41,189,35,62,14,62,55,205,166,62,193,104,108,62,153,17,141,190,52,250,44,62,163,158,92,62,110,223,153,62,99,67,52,190,125,33,15,190,25,235,157,189,130,173,60,190,211,163,205,59,215,192,200,61,203,232,30,189,46,83,151,190,223,151,133,60,183,221,164,62,3,240,253,61,94,215,17,62,44,185,146,190,217,61,34,190,98,88,131,189,127,254,95,62,234,227,7,189,27,114,134,188,106,254,7,187,253,44,70,62,149,21,79,190,212,236,158,60,162,130,40,61,110,60,5,62,48,50,36,60,76,225,12,62,84,79,160,62,42,150,129,189,61,164,40,62,20,255,128,62,195,98,43,190,56,188,151,189,117,64,28,62,14,6,105,190,88,201,30,190,171,176,83,190,6,162,251,189,239,106,89,62,246,6,203,189,45,166,0,61,118,66,46,61,143,110,138,190,67,248,61,190,111,108,35,61,76,232,5,189,30,52,104,62,168,91,121,57,244,30,143,190,232,120,58,62,160,64,194,62,198,9,137,62,234,99,159,62,207,243,86,190,2,44,179,61,219,95,62,190,169,102,204,61,186,128,21,189,245,60,99,190,34,228,27,62,213,56,3,62,124,115,251,61,248,202,84,62,8,183,52,62,84,25,33,190,97,72,134,62,164,68,186,188,163,153,135,190,219,254,99,62,9,204,105,61,51,62,155,62,75,31,94,62,160,68,197,189,168,80,88,61,169,184,4,62,179,124,158,62,177,53,12,61,116,217,86,62,145,211,133,62,67,143,120,189,93,135,208,61,155,255,82,62,24,4,75,189,63,237,223,61,237,234,140,62,124,253,103,62,242,244,57,190,242,185,36,62,214,220,44,62,31,41,72,190,65,122,147,189,195,157,188,61,119,51,44,62,120,101,14,61,3,218,103,189,213,56,116,189,79,71,40,61,209,50,13,190,6,48,44,62,16,247,157,62,49,22,59,62,31,5,129,61,90,196,57,61,196,36,32,62,202,165,44,190,70,199,67,190,157,53,70,62,168,192,166,61,61,66,127,62,173,177,248,61,17,166,237,189,185,38,210,61,17,26,81,190,118,24,197,189,210,39,90,62,53,149,59,190,154,90,52,62,79,142,9,190,23,14,127,189,148,44,114,62,174,213,96,60,216,162,212,190,172,151,35,62,254,248,38,62,243,72,153,61,15,237,61,190,233,49,107,62,46,146,132,62,143,140,52,61,70,118,167,61,71,122,175,62,176,234,212,189,183,89,25,190,18,221,151,188,128,48,13,62,126,85,3,190,223,138,169,60,172,76,67,61,51,149,96,62,61,41,99,62,246,192,34,189,26,77,192,61,87,75,155,61,21,172,81,62,177,8,132,62,113,68,23,190,121,249,248,189,86,203,220,190,121,239,52,190,1,102,141,189,19,193,24,62,123,190,80,190,224,230,57,189,140,98,226,189,31,73,62,190,192,41,208,61,157,86,148,62,22,52,59,190,141,90,132,62,156,128,58,190,212,220,92,61,250,247,9,62,59,174,228,189,75,146,25,61,221,218,139,62,45,245,197,189,246,10,16,62,239,89,138,190,184,210,148,61,240,24,105,190,75,101,71,62,53,188,85,190,27,9,164,62,82,86,182,190,227,35,167,189,129,242,166,190,207,175,33,61,180,235,157,190,93,246,13,190,46,66,14,62,215,207,249,60,165,83,5,190,167,2,41,189,234,67,126,190,180,176,60,190,140,135,152,190,70,6,130,62,21,141,143,187,159,100,21,190,119,32,203,188,146,249,135,62,248,101,32,62,125,135,139,62,128,50,184,190,63,3,130,61,163,212,239,61,179,24,88,62,198,100,138,189,73,3,157,190,85,105,11,62,140,255,86,61,116,28,242,61,241,170,175,190,7,90,188,190,218,10,84,190,81,49,247,61,48,233,119,62,3,180,102,190,172,166,23,190,111,214,151,189,210,47,77,190,240,50,8,61,20,118,90,62,111,50,20,62,219,170,148,190,50,222,106,190,5,50,84,189,145,50,247,188,132,58,106,62,163,199,5,190,60,217,50,61,165,9,162,188,148,164,143,189,60,155,181,188,200,170,128,189,130,162,170,62,95,63,111,62,70,44,35,62,195,78,100,62,204,224,105,61,195,251,68,190,79,232,24,190,130,223,54,190,192,96,252,188,9,11,167,62,6,220,151,62,222,249,119,189,48,42,164,189,207,92,25,61,216,60,42,190,208,100,8,62,162,235,19,187,183,217,93,62,34,214,145,62,2,190,89,190,99,166,208,59,93,139,173,60,165,200,248,61,145,236,86,190,152,197,192,189,160,4,4,62,238,123,112,190,192,33,107,62,246,239,104,190,252,167,59,62,220,184,5,190,171,248,201,189,44,113,71,190,241,232,166,61,176,163,97,190,205,35,224,61,80,251,60,60,93,99,206,190,50,19,129,189,222,239,43,190,87,146,145,190,175,217,12,61,20,214,161,190,4,0,108,189,246,127,255,255,16,0,0,0,36,0,0,0,28,0,0,0,44,0,0,0,4,0,0,0,16,0,0,0,1,0,0,0,3,0,0,0,8,0,0,0,14,0,0,0,115,116,100,46,99,111,110,115,116,97,110,116,50,57,0,0,120,127,255,255,162,128,255,255,4,0,0,0,64,5,0,0,107,240,42,190,123,184,178,59,30,154,132,189,85,43,204,189,15,215,244,61,108,211,34,61,182,40,130,190,34,212,212,61,88,246,135,188,16,79,13,62,43,4,129,190,80,42,163,190,74,236,5,62,247,39,2,189,100,184,131,190,164,225,63,62,138,193,54,62,169,217,208,190,171,228,156,62,43,244,11,62,248,81,99,189,179,84,53,62,253,215,37,190,201,71,68,62,111,153,96,62,123,124,240,61,81,85,32,190,198,161,197,60,222,124,128,62,171,53,197,188,31,213,109,189,183,107,208,61,183,20,210,62,127,214,10,190,163,119,105,188,208,89,31,62,80,73,129,190,189,41,28,62,43,147,101,190,170,120,82,190,77,150,107,190,202,51,13,62,9,94,234,189,223,107,150,62,200,12,74,61,67,47,17,61,177,226,209,190,38,233,106,59,117,108,168,62,152,179,118,62,156,210,21,189,199,36,240,61,237,162,41,62,187,19,161,60,140,113,133,61,188,109,9,190,52,99,188,62,150,12,24,62,220,23,128,190,5,67,95,190,201,160,121,188,232,188,59,62,221,189,127,190,245,196,144,62,160,137,156,61,205,96,220,188,201,236,97,190,187,179,208,62,178,147,98,62,167,61,168,62,238,142,40,190,74,205,231,60,143,8,190,190,65,221,36,190,45,253,166,189,41,159,157,190,247,253,192,61,247,90,40,59,136,245,47,61,11,74,197,190,12,46,137,62,206,163,185,62,237,125,105,189,90,170,222,189,98,220,202,59,165,163,72,62,175,175,160,62,210,201,28,190,62,66,26,190,156,221,108,190,39,40,196,61,98,196,67,62,33,171,137,62,212,189,28,62,205,146,84,189,254,58,161,60,94,104,102,190,31,156,193,189,139,192,52,190,30,73,173,189,186,10,245,189,217,8,44,190,84,208,157,62,151,57,179,62,170,1,153,62,115,202,33,62,44,149,82,62,217,199,74,62,10,119,37,62,191,101,161,190,82,5,64,62,29,77,35,62,157,138,153,62,123,186,65,60,248,58,77,189,84,232,49,190,91,37,160,190,22,100,170,61,37,138,119,190,33,39,121,59,193,168,97,62,210,24,124,62,180,3,147,62,192,131,155,190,168,209,86,62,171,22,213,62,12,8,175,190,84,61,222,187,249,31,23,61,234,57,113,190,32,68,229,61,245,55,89,60,69,253,158,189,45,42,251,61,44,154,99,190,102,158,140,189,234,25,84,190,160,35,188,190,42,201,86,190,100,203,118,190,123,121,13,190,195,34,31,61,8,143,28,61,161,51,84,189,162,132,134,190,188,224,226,189,177,245,26,190,232,141,127,62,56,118,238,56,164,44,216,190,10,8,51,61,30,74,25,190,37,130,239,189,174,179,161,190,106,112,56,189,56,51,196,190,202,154,80,62,230,139,25,61,252,54,131,190,29,63,222,61,188,237,164,62,182,191,131,190,81,148,94,190,176,107,124,190,43,233,226,61,216,134,83,62,45,28,155,189,152,247,2,62,66,179,135,62,184,39,91,190,208,189,219,189,129,143,176,60,92,239,236,188,239,123,9,190,130,76,179,190,195,173,120,61,153,220,24,189,114,96,152,62,166,13,80,190,239,243,131,62,93,50,214,61,145,192,66,190,209,1,168,189,133,103,87,62,8,211,144,189,108,236,76,62,180,66,111,190,103,224,191,62,253,163,157,189,68,212,145,62,43,169,107,190,97,61,132,62,88,126,191,188,163,112,138,62,208,113,167,62,4,160,224,62,214,20,124,190,23,98,130,189,66,211,60,62,211,65,68,61,44,13,210,189,173,60,160,190,164,172,5,61,55,37,144,62,35,90,167,190,134,175,226,189,170,153,52,62,74,22,121,190,204,225,17,190,120,188,63,190,152,77,35,62,31,167,87,62,135,212,71,62,206,70,255,189,222,32,166,62,62,61,10,62,231,43,44,62,238,125,130,190,235,247,144,62,166,132,154,190,212,232,47,62,131,180,165,189,18,129,142,190,22,102,47,190,239,184,145,61,140,12,47,189,33,245,190,189,233,181,159,62,74,174,166,61,121,184,156,189,141,21,178,190,29,248,133,62,204,103,203,60,28,122,3,191,35,70,32,62,93,129,138,189,156,131,17,190,87,117,155,190,194,86,93,62,17,196,14,191,239,118,230,62,19,53,169,61,172,224,15,190,67,73,84,62,216,133,140,62,124,156,184,189,139,75,53,189,207,84,31,62,166,138,224,61,94,254,226,62,241,111,145,60,184,181,191,62,206,236,21,190,73,196,220,62,149,47,245,61,210,160,245,60,239,57,120,190,130,163,77,62,174,64,20,62,174,103,46,190,206,174,59,62,101,121,146,190,4,11,99,190,41,42,68,62,133,220,125,62,77,140,223,61,220,108,150,190,236,109,43,190,133,81,238,61,30,76,34,62,90,100,144,62,62,207,207,61,215,4,28,190,218,38,177,62,106,81,24,191,211,245,35,190,232,119,229,60,45,202,48,62,197,192,147,59,226,123,193,190,149,72,30,62,212,25,26,190,147,120,220,189,137,95,155,62,133,74,202,190,3,65,177,190,56,239,171,62,239,221,128,190,74,11,191,62,201,206,101,190,43,250,50,62,88,197,86,190,160,204,215,190,28,103,42,59,190,127,147,62,80,169,139,190,75,184,147,61,122,252,90,190,177,148,236,189,96,34,65,190,82,102,44,61,232,188,238,61,96,31,132,61,155,75,210,61,80,170,51,187,143,82,184,62,213,219,135,62,115,152,243,189,184,21,133,190,223,169,135,62,180,88,178,62,34,10,71,62,60,194,211,61,255,114,76,189,100,111,70,190,245,230,182,189,25,201,142,62,48,157,10,189,176,133,215,59,104,241,208,188,195,58,140,190,193,35,182,190,87,43,25,61,156,85,75,190,223,131,3,190,143,239,41,62,147,123,234,189,101,42,67,61,19,133,207,189,66,78,151,189,215,35,193,188,71,20,145,190,144,12,208,189,250,95,70,62,35,109,3,188,221,212,201,61,130,133,255,255,16,0,0,0,35,0,0,0,28,0,0,0,44,0,0,0,4,0,0,0,8,0,0,0,1,0,0,0,1,0,0,0,42,0,0,0,14,0,0,0,115,116,100,46,99,111,110,115,116,97,110,116,50,56,0,0,4,133,255,255,46,134,255,255,4,0,0,0,0,6,0,0,46,6,225,60,101,103,252,62,127,191,232,61,16,188,201,61,167,13,108,189,137,98,71,62,29,218,21,61,227,61,170,189,7,127,230,189,163,163,158,62,116,163,83,62,182,254,226,61,118,251,152,190,69,250,101,62,212,198,174,189,158,92,167,189,205,83,131,190,184,65,226,62,232,212,97,62,194,186,34,62,206,187,72,190,59,243,179,61,12,187,40,190,245,128,40,190,145,149,1,62,163,81,43,190,31,228,10,61,179,160,58,190,245,162,0,189,219,60,156,190,242,76,87,60,199,239,66,62,26,173,192,62,82,12,0,61,55,193,160,62,17,95,5,190,172,114,46,190,37,225,62,189,62,94,90,189,232,93,227,60,183,129,160,62,212,175,224,190,18,209,65,62,85,1,56,59,90,118,21,190,120,13,172,190,148,133,217,189,81,45,151,62,225,167,109,190,216,234,118,62,249,69,74,188,235,9,124,190,112,246,190,62,135,55,18,190,215,26,142,190,3,244,24,62,61,98,107,187,76,129,185,189,165,170,143,188,185,25,129,190,12,169,118,62,23,115,221,190,190,10,67,190,43,24,128,189,109,231,27,62,122,210,79,189,96,1,10,60,145,174,98,190,157,109,48,62,155,211,24,190,126,150,114,62,73,218,226,189,152,91,121,190,13,101,94,62,171,252,152,189,73,192,230,190,92,184,163,62,150,120,30,190,233,40,45,190,221,109,136,62,137,142,124,61,6,187,78,62,241,26,55,62,126,151,168,190,138,114,58,60,180,237,183,190,80,247,154,60,245,72,161,62,140,105,195,188,83,39,38,190,105,41,197,189,84,120,112,61,218,25,112,62,93,63,105,190,169,102,42,62,195,177,184,189,117,234,16,62,198,210,23,189,17,13,55,190,250,48,30,59,43,72,59,190,229,164,224,188,162,250,156,189,215,195,93,190,120,37,191,59,135,185,225,189,150,140,45,190,254,167,150,62,78,206,122,62,105,133,205,187,230,12,150,189,231,170,130,188,196,155,58,190,245,146,90,189,135,151,71,190,89,217,211,62,83,132,107,62,140,65,10,190,40,47,139,61,185,25,97,62,53,131,234,61,190,152,226,61,114,165,137,61,91,115,88,190,165,166,159,190,178,112,115,61,17,198,10,190,247,220,152,190,255,159,136,62,43,148,83,62,138,240,255,189,189,212,178,60,8,249,206,189,220,10,184,189,68,234,153,62,147,232,231,61,166,200,135,62,127,74,86,62,176,180,37,188,249,235,154,188,93,229,12,61,208,42,243,189,146,8,153,189,155,7,9,190,86,13,136,61,18,198,169,188,161,172,73,59,184,85,10,61,175,18,136,60,212,76,34,189,72,165,41,62,139,108,133,61,165,251,46,189,233,91,129,190,210,39,51,62,47,201,8,62,53,229,36,190,253,185,47,189,145,210,135,190,190,88,191,60,41,47,6,62,155,120,230,190,147,108,23,62,213,103,2,59,157,177,47,62,32,1,156,61,188,105,106,61,147,227,72,61,151,243,236,61,107,231,182,188,234,146,87,190,206,69,135,190,248,199,108,190,179,189,83,62,30,159,47,62,3,92,134,190,50,205,160,61,235,240,175,61,73,99,111,190,227,136,20,190,213,10,171,190,166,209,57,62,94,27,161,62,79,215,39,190,201,242,99,190,18,178,33,190,157,234,108,190,174,116,133,189,200,209,247,61,206,109,1,190,59,10,131,62,95,21,221,189,167,149,4,190,45,161,73,190,239,152,232,189,156,139,241,189,11,33,93,190,123,206,5,190,63,38,11,188,139,83,101,61,138,215,69,62,235,51,72,61,57,136,76,190,119,28,204,189,181,58,56,188,52,155,95,190,170,85,47,62,88,220,100,190,213,171,68,190,176,219,7,190,255,186,132,61,191,110,93,190,57,71,82,62,222,79,54,62,202,153,159,62,136,127,178,189,218,191,246,58,37,104,238,189,196,123,90,189,146,164,234,61,50,35,129,190,253,66,47,62,88,251,40,190,155,206,151,189,243,56,240,189,190,10,80,190,65,181,176,189,85,172,91,190,28,86,58,62,150,85,152,190,25,225,59,60,211,88,148,62,80,7,75,62,21,36,164,188,250,194,31,60,120,222,9,189,203,61,175,190,140,104,164,189,209,26,16,62,87,237,148,190,7,180,100,61,209,198,75,190,101,117,212,59,91,59,220,60,35,32,185,189,105,241,130,190,117,11,87,62,170,223,56,189,61,182,151,61,66,26,191,190,127,38,234,61,187,234,232,62,31,139,83,62,12,45,139,188,172,31,10,189,137,206,50,190,156,16,52,61,185,54,85,190,112,76,47,189,207,63,217,61,74,252,99,190,251,231,100,190,129,61,118,62,133,92,224,187,150,45,145,190,164,37,55,190,104,174,134,190,177,116,165,61,209,253,173,60,193,182,76,62,81,177,60,62,211,85,163,188,61,118,116,62,214,240,152,189,157,11,234,61,107,202,144,189,130,212,76,190,98,243,159,190,42,133,70,62,78,96,122,189,134,77,34,190,162,115,186,189,156,110,96,188,131,118,218,61,195,6,41,190,125,126,18,62,33,49,129,188,211,147,232,189,137,70,111,190,128,214,50,187,128,139,228,60,196,199,147,62,32,244,65,190,177,182,119,190,118,14,130,62,146,46,103,190,165,221,132,62,242,36,118,60,5,180,48,60,139,105,213,58,20,151,184,190,165,11,138,190,147,137,63,62,160,40,5,62,234,243,204,189,148,38,173,62,165,51,165,190,160,124,120,62,182,3,80,62,217,115,22,189,63,16,142,62,144,248,49,62,126,119,104,62,99,244,30,62,6,94,228,61,22,33,103,187,64,45,124,189,202,163,91,190,169,180,215,189,135,0,64,190,187,143,46,62,175,46,38,62,239,135,176,61,18,92,130,189,22,105,122,189,91,228,7,190,23,173,45,62,25,18,128,190,4,67,2,61,156,88,140,61,210,122,98,62,108,102,142,189,219,5,57,190,228,81,169,190,236,111,40,189,145,224,70,190,181,81,232,58,97,230,3,190,170,92,42,190,228,5,28,62,239,238,119,190,237,14,108,188,26,174,57,190,141,134,227,189,10,245,220,61,56,47,62,189,151,151,151,190,6,151,121,190,104,148,111,190,147,82,111,61,136,67,160,62,120,171,178,189,241,51,33,62,190,68,246,60,29,232,2,62,30,73,51,190,226,230,119,189,13,37,161,61,247,35,235,60,5,23,15,190,186,148,38,61,31,203,62,190,2,222,76,61,242,140,206,189,241,230,148,189,243,130,31,190,199,121,146,62,146,160,37,62,31,121,116,61,178,106,18,62,7,113,55,190,45,22,95,190,0,187,23,190,9,67,86,62,4,105,163,62,185,187,158,190,110,120,92,58,76,185,193,189,237,79,96,62,1,11,49,190,32,77,75,190,150,195,101,190,242,108,23,187,191,115,192,60,206,139,255,255,16,0,0,0,34,0,0,0,28,0,0,0,44,0,0,0,4,0,0,0,16,0,0,0,1,0,0,0,3,0,0,0,8,0,0,0,14,0,0,0,115,116,100,46,99,111,110,115,116,97,110,116,50,55,0,0,80,139,255,255,122,140,255,255,4,0,0,0,64,5,0,0,68,206,99,62,185,54,51,60,238,249,102,190,97,32,74,62,142,71,75,189,233,178,35,62,90,185,104,190,129,209,18,190,91,18,163,189,74,176,28,190,127,4,164,62,74,111,38,190,202,5,134,189,223,24,16,190,202,211,208,190,41,205,19,62,57,138,198,60,116,38,207,190,46,145,150,189,253,7,85,189,141,122,47,61,17,46,196,61,87,91,124,62,0,154,166,62,159,163,9,61,115,5,134,190,91,188,228,60,233,44,49,190,241,155,138,62,43,164,180,61,52,167,0,62,13,180,139,62,169,17,140,62,214,76,150,188,208,66,135,190,88,83,214,61,171,203,2,62,112,236,216,189,50,189,82,62,12,52,196,190,172,95,13,190,184,157,21,60,234,176,159,190,39,100,104,189,210,10,95,190,144,22,178,61,122,130,25,190,172,29,62,61,44,77,133,62,2,27,88,61,85,168,119,190,133,133,146,189,145,33,207,61,240,47,109,62,25,226,176,60,15,96,169,61,191,149,35,190,58,69,127,185,125,3,78,62,149,97,109,62,20,47,69,189,71,187,134,60,123,95,147,189,239,156,208,190,118,202,28,190,5,185,41,190,99,21,35,190,158,188,89,62,116,175,201,62,30,171,146,62,181,63,152,62,254,67,208,190,99,40,125,189,108,122,76,190,155,187,160,61,24,0,101,190,161,115,93,62,142,101,245,189,62,116,129,189,207,11,181,59,95,31,98,190,128,217,177,61,137,8,239,189,223,20,233,190,238,17,122,190,70,238,142,190,213,84,8,62,52,48,71,190,27,204,143,189,16,89,62,62,94,246,52,190,199,225,83,62,118,76,231,188,26,35,230,188,72,184,119,189,201,139,8,62,178,7,127,61,114,42,57,189,197,137,156,62,22,250,49,62,234,189,142,62,176,42,245,189,22,213,193,188,32,24,35,61,24,143,84,186,254,47,105,62,27,12,225,190,98,10,56,62,224,181,118,62,123,156,129,190,47,20,36,190,7,8,62,61,24,48,139,62,187,177,79,189,22,62,58,190,82,5,76,189,141,178,28,190,114,71,219,188,207,67,56,190,5,106,55,190,1,28,26,190,170,19,72,62,64,211,130,62,211,75,142,190,58,136,133,62,92,37,206,62,63,30,4,189,59,198,14,190,206,244,138,190,83,171,133,62,42,145,11,190,31,220,53,190,149,50,29,189,73,160,50,62,148,125,98,62,123,29,195,187,202,232,144,189,19,251,73,188,30,154,57,61,37,78,156,62,34,251,135,62,243,48,152,189,133,141,36,61,92,254,121,190,181,1,242,189,186,113,159,190,94,243,210,61,130,107,32,190,143,20,79,62,118,203,8,62,39,82,10,189,11,243,67,61,126,2,189,190,55,131,44,62,0,114,104,189,141,131,188,189,68,52,7,190,233,93,240,61,72,119,148,62,183,180,245,189,145,86,79,62,195,204,113,190,51,199,239,61,185,60,219,190,167,126,178,62,60,16,135,190,187,26,21,62,15,67,162,62,139,124,70,62,1,3,216,60,162,30,138,62,189,53,108,62,6,144,107,62,174,167,9,190,247,231,13,60,132,16,9,62,222,113,132,62,39,14,247,61,128,98,6,62,29,2,174,62,248,87,138,189,85,62,173,60,109,81,255,189,75,182,138,190,90,181,51,62,36,211,154,62,55,135,213,190,90,99,46,62,64,197,6,190,86,118,184,189,79,114,188,62,107,197,25,62,76,253,160,62,129,89,128,62,242,141,120,61,88,134,160,189,58,127,129,60,183,140,91,61,2,33,248,62,175,217,130,190,15,229,149,190,188,224,171,190,85,184,250,189,203,3,90,62,133,21,87,188,104,59,139,190,53,206,52,62,75,58,153,62,236,40,58,190,218,120,152,62,200,167,148,190,162,12,238,189,102,219,201,189,63,183,67,190,9,210,179,190,17,105,152,62,137,168,15,61,90,16,120,62,53,179,35,190,107,232,181,189,25,227,37,190,190,13,87,61,78,202,91,62,141,164,70,189,84,70,176,62,226,33,113,190,230,89,169,60,253,43,229,61,132,106,133,61,139,51,58,190,175,105,89,190,219,71,112,189,100,231,64,62,193,28,191,189,151,197,231,189,50,88,103,61,52,35,151,190,53,196,54,189,174,111,129,61,169,90,231,190,110,250,163,190,51,130,78,190,179,218,143,62,230,186,253,62,191,147,14,190,7,228,129,189,181,238,48,62,162,179,139,62,251,30,202,59,23,6,131,189,89,44,195,60,180,73,68,60,48,243,240,189,87,183,90,61,158,130,91,62,100,191,141,190,241,104,72,190,97,228,75,187,225,204,212,188,59,123,177,189,61,95,162,61,5,37,26,62,175,107,81,189,111,108,224,61,72,99,23,62,214,125,192,189,72,36,162,190,103,114,62,62,174,49,132,62,131,77,191,190,217,4,192,188,224,146,106,60,144,41,252,59,168,101,140,190,253,175,181,189,75,40,240,189,100,51,26,190,100,185,84,190,78,172,4,191,81,232,152,190,129,46,241,61,143,204,227,189,116,195,57,188,128,93,219,189,92,216,129,61,147,254,188,60,21,68,56,188,22,24,34,190,152,229,174,190,185,0,154,190,251,165,55,190,101,23,152,61,232,240,141,61,182,147,93,61,11,149,124,62,159,9,172,62,39,201,97,62,102,7,6,190,142,10,128,62,131,91,140,189,181,228,172,61,65,74,13,62,18,106,15,62,224,111,187,61,14,12,120,190,149,89,101,189,72,115,123,190,130,250,240,189,125,121,185,62,12,244,177,189,191,56,216,189,31,121,25,62,254,208,149,190,20,133,102,62,161,192,3,61,28,108,204,62,168,20,176,60,49,220,125,62,39,198,29,62,161,38,14,190,143,14,85,62,208,161,254,61,185,254,23,62,95,195,172,190,23,181,59,62,201,52,235,61,164,142,217,190,20,57,172,189,42,26,137,60,88,8,2,63,149,223,54,190,56,169,193,62,187,112,134,62,88,80,118,62,70,85,22,190,141,128,150,62,90,145,255,255,16,0,0,0,33,0,0,0,28,0,0,0,44,0,0,0,4,0,0,0,8,0,0,0,1,0,0,0,1,0,0,0,42,0,0,0,14,0,0,0,115,116,100,46,99,111,110,115,116,97,110,116,50,54,0,0,220,144,255,255,6,146,255,255,4,0,0,0,64,5,0,0,188,64,20,190,1,103,102,62,241,253,141,190,75,167,108,60,222,197,101,190,35,154,201,189,28,234,44,62,243,233,168,189,120,179,125,62,139,133,6,188,48,88,19,62,3,127,30,61,100,226,95,61,42,231,117,190,72,108,42,62,33,185,174,61,112,50,148,189,168,80,35,190,163,153,211,60,10,248,30,62,141,66,10,190,236,202,132,62,142,59,203,190,183,249,130,62,41,243,210,189,65,228,120,62,155,22,152,62,238,96,153,62,1,36,44,62,33,109,68,62,167,158,151,190,30,47,14,62,196,172,13,190,102,191,13,62,26,108,145,62,60,139,8,62,95,65,86,61,137,19,197,61,198,83,97,189,104,15,162,61,41,154,100,190,127,95,129,188,51,59,192,190,111,16,168,190,32,35,137,62,203,81,200,189,137,215,17,190,62,248,236,60,78,213,129,189,223,92,91,62,121,116,172,186,138,70,123,61,176,69,218,189,93,202,250,61,139,248,57,190,220,240,182,190,217,76,125,190,133,202,40,190,33,73,159,190,99,61,18,190,96,249,245,61,19,142,88,62,234,58,26,62,178,203,72,61,160,24,155,62,60,187,90,62,133,126,67,189,33,193,6,188,94,212,106,189,171,188,102,62,79,180,245,61,79,122,20,62,160,34,22,190,238,125,63,190,164,8,250,61,210,54,133,60,172,239,180,61,133,170,59,190,54,62,234,61,217,153,138,190,239,36,55,190,149,13,163,62,16,210,135,60,81,78,90,188,120,140,109,62,182,231,193,62,79,205,57,190,40,119,15,189,35,179,69,190,179,147,245,189,203,110,35,189,135,92,199,190,178,232,73,190,154,69,1,190,142,33,149,62,126,222,134,62,155,243,134,190,23,32,61,62,21,108,2,190,91,253,80,62,250,20,133,62,124,63,146,190,158,80,199,189,40,92,182,61,236,120,233,189,8,114,7,62,201,25,183,189,45,184,128,61,56,196,204,190,170,117,34,189,86,136,72,61,67,61,123,62,64,241,124,62,23,201,123,62,244,182,228,190,36,186,243,189,147,246,249,190,12,139,136,190,188,0,151,189,88,45,249,60,162,141,48,190,121,29,33,190,49,110,105,62,109,209,15,63,67,187,160,189,64,203,86,189,8,186,161,62,96,193,111,61,227,143,184,62,156,37,1,62,243,234,80,190,77,36,211,189,69,68,50,62,25,132,233,62,95,5,101,62,3,7,77,61,45,184,79,190,39,143,68,190,245,228,130,61,142,95,135,62,149,126,180,62,162,103,211,62,115,159,97,189,36,221,125,190,222,168,222,60,131,149,172,61,144,120,160,189,173,28,24,190,193,32,28,63,110,213,120,62,249,5,106,62,84,200,85,190,0,89,10,61,52,62,208,61,87,128,27,62,132,149,188,60,212,224,166,190,14,176,78,62,233,104,162,62,123,247,134,190,4,91,211,189,222,25,9,62,118,91,69,62,6,23,130,61,255,228,111,62,237,67,76,190,6,153,171,62,182,55,213,62,215,249,126,189,209,159,116,190,45,205,245,61,150,26,130,62,71,134,204,60,42,45,133,186,161,233,170,189,123,197,81,62,22,82,130,62,135,87,76,61,36,68,196,58,53,70,158,190,189,1,56,62,53,95,37,62,144,134,93,190,117,156,110,62,107,176,80,190,218,53,162,189,107,199,123,190,173,6,24,62,223,122,209,190,25,146,112,62,118,151,95,62,195,203,128,189,173,147,125,62,235,191,78,188,98,199,219,190,209,141,176,189,70,251,154,190,96,61,58,62,234,157,90,62,2,233,68,190,230,136,16,61,103,246,174,190,192,178,163,190,130,246,55,190,222,174,142,62,80,87,225,190,64,101,10,61,45,83,94,190,54,28,121,62,159,115,162,188,178,250,198,190,149,181,16,60,84,14,80,190,138,69,70,190,196,53,147,62,184,184,86,190,204,91,52,190,100,112,57,61,229,37,135,190,127,88,35,62,50,210,219,61,171,124,135,190,84,65,111,61,124,165,175,190,86,173,183,61,143,169,174,190,176,116,0,62,221,54,79,189,44,223,221,189,145,48,253,60,148,213,150,190,252,165,26,190,193,198,1,63,148,125,52,62,254,68,168,190,196,14,188,190,187,151,95,62,40,26,125,189,207,26,40,62,148,255,198,189,246,160,49,62,172,101,156,190,234,110,174,62,13,57,216,188,107,2,171,190,187,254,73,61,46,155,220,189,23,46,154,62,23,161,112,62,251,134,104,62,253,58,71,62,109,171,215,61,6,175,244,61,187,109,249,190,244,177,83,62,200,137,24,189,132,152,210,62,187,14,233,189,64,178,9,190,146,111,94,190,133,255,227,189,74,204,21,187,158,58,202,189,141,138,136,62,68,206,13,62,108,201,13,62,107,250,153,190,151,242,250,187,24,234,165,190,47,190,97,61,56,89,90,190,208,226,80,61,67,24,179,190,143,72,83,62,207,8,155,188,183,184,64,190,15,218,151,61,80,177,78,62,205,9,152,189,137,32,160,190,206,69,208,190,219,190,239,61,118,46,10,63,46,226,96,190,76,240,65,190,68,88,114,189,229,138,109,190,90,96,162,189,216,68,101,190,104,179,2,190,210,105,249,189,227,39,183,62,251,164,210,189,244,113,13,189,215,65,15,190,0,161,20,60,100,129,194,189,220,180,138,62,99,167,141,62,11,228,38,190,72,24,219,61,96,188,216,189,197,164,145,62,176,214,173,62,75,104,21,190,167,247,47,190,24,33,116,188,23,236,37,62,237,58,106,190,160,29,143,190,2,52,150,190,48,45,93,62,80,156,152,62,58,113,63,189,63,97,167,190,139,102,43,190,22,24,122,190,13,223,117,190,248,226,143,61,185,240,140,62,132,82,94,190,88,114,16,189,217,212,69,189,64,134,96,62,121,3,155,190,243,65,43,190,232,59,31,190,41,43,154,61,252,41,170,61,16,200,135,190,60,177,50,190,6,76,136,61,177,191,153,190,37,189,154,187,23,121,176,190,181,212,47,190,230,150,255,255,16,0,0,0,32,0,0,0,28,0,0,0,44,0,0,0,4,0,0,0,8,0,0,0,1,0,0,0,1,0,0,0,42,0,0,0,14,0,0,0,115,116,100,46,99,111,110,115,116,97,110,116,50,53,0,0,104,150,255,255,146,151,255,255,4,0,0,0,64,5,0,0,178,102,166,189,250,192,171,62,127,44,149,189,40,168,7,62,15,235,227,189,62,243,86,61,195,176,56,190,96,1,130,62,185,189,0,190,198,2,129,189,128,243,159,62,186,99,113,61,148,134,61,61,97,134,17,62,33,5,143,62,186,200,66,189,181,254,184,188,215,130,155,62,129,49,22,190,84,192,155,62,72,231,96,190,96,83,34,191,33,209,43,189,34,104,102,61,96,60,224,61,158,59,140,190,111,169,27,190,123,228,193,62,217,39,25,190,221,187,206,61,145,164,1,190,225,123,118,190,14,3,44,60,239,67,52,62,2,50,117,190,120,153,42,62,28,115,224,61,103,73,131,190,88,190,11,190,214,250,161,190,206,63,195,62,67,7,114,61,217,193,44,61,15,202,224,190,153,17,227,189,168,175,149,190,5,102,113,190,121,200,168,61,150,91,11,189,184,4,59,191,133,250,201,62,38,129,182,189,212,42,5,190,72,167,57,62,122,186,218,61,179,159,165,62,80,15,185,189,21,22,204,190,102,242,104,61,246,17,79,62,160,52,44,61,84,211,140,190,165,254,136,189,99,131,150,188,88,135,95,189,131,197,0,190,100,52,94,190,88,130,7,62,23,25,193,60,115,235,39,190,89,232,186,190,69,22,196,61,157,90,84,61,203,148,221,189,178,254,133,62,11,66,106,62,123,187,106,62,138,27,32,62,133,167,125,62,178,213,169,62,179,170,66,60,169,248,28,63,142,84,220,189,81,211,211,62,162,84,73,189,150,136,149,61,41,127,52,62,208,233,36,190,190,222,13,61,87,39,36,63,200,33,52,61,208,180,8,63,91,101,86,190,131,177,176,189,17,119,61,189,228,118,55,190,225,22,147,61,12,246,23,190,179,159,24,61,167,196,32,63,71,179,161,189,63,16,89,190,177,179,135,190,114,133,232,187,120,59,70,62,166,97,248,189,83,150,38,62,68,96,188,62,117,220,185,62,240,183,52,63,226,54,24,190,186,154,226,189,16,100,23,189,232,184,61,190,209,56,129,190,183,190,13,62,91,187,77,62,78,52,3,190,156,246,141,190,200,59,88,61,183,187,167,189,91,130,29,190,218,249,166,190,2,229,159,62,98,89,138,187,76,100,227,189,92,228,18,61,40,232,162,62,203,50,123,190,26,58,18,189,251,225,254,189,13,248,182,61,246,168,126,190,176,48,122,189,140,151,168,190,111,148,121,62,13,61,182,190,161,44,34,189,240,103,132,62,103,51,105,190,115,72,123,61,230,219,73,190,251,169,39,62,33,117,35,189,226,42,229,190,241,43,234,62,141,107,37,60,255,232,31,63,102,165,177,190,20,99,158,62,49,75,44,189,92,150,228,61,130,115,14,190,69,130,212,61,225,155,135,62,76,42,28,191,122,24,16,190,7,68,136,190,17,66,153,190,156,104,186,61,142,121,84,61,250,19,176,61,167,183,63,190,33,187,39,61,146,88,233,189,4,183,43,190,246,243,198,61,39,50,119,190,186,68,45,188,209,72,65,191,189,7,248,189,235,155,154,60,148,90,91,190,18,243,172,62,123,112,15,62,232,199,28,189,24,123,6,62,153,24,133,62,239,25,228,188,74,182,3,190,87,161,202,189,26,47,175,62,99,126,244,189,36,89,180,61,239,196,108,62,5,42,44,60,131,64,113,62,146,217,248,61,138,252,85,62,129,14,5,191,215,184,220,60,229,23,123,190,99,139,188,62,73,239,146,190,19,61,130,62,225,191,101,188,5,194,195,188,103,64,249,62,49,40,36,62,51,168,241,61,69,58,172,190,190,207,18,62,79,14,186,189,233,192,51,63,81,108,19,60,241,17,164,61,208,94,180,62,29,99,103,61,228,209,145,188,175,102,245,189,215,61,182,62,161,78,136,190,242,128,246,61,111,225,177,189,2,113,83,190,40,175,177,190,128,120,229,188,14,68,197,190,161,198,164,190,144,10,104,62,212,254,33,190,94,144,5,63,46,238,138,60,24,208,160,189,86,123,77,190,217,198,172,189,81,48,150,62,240,15,13,62,2,172,188,190,38,120,88,62,93,126,123,62,96,251,218,189,172,116,197,189,54,140,133,186,89,166,198,190,252,215,79,62,30,184,128,61,14,119,13,190,186,87,1,62,81,82,22,189,218,189,172,61,233,116,18,190,54,10,223,188,193,87,136,61,254,210,174,189,221,190,133,189,251,0,139,62,203,135,233,190,85,141,152,190,51,62,37,188,219,168,209,62,187,96,188,189,74,201,220,188,139,141,204,188,238,148,200,58,194,91,97,62,105,34,152,62,97,187,246,62,69,158,121,62,103,39,9,191,69,248,47,190,70,226,63,189,108,205,9,62,220,109,157,62,233,233,213,189,255,74,20,62,107,232,178,189,72,238,33,63,74,59,7,189,174,186,70,62,39,150,229,189,94,128,131,60,67,86,194,189,136,185,79,189,162,32,181,190,71,163,57,191,124,39,125,60,253,182,114,62,17,159,42,190,152,166,130,190,135,155,167,190,144,235,176,190,168,244,215,61,213,197,246,190,98,73,255,189,214,82,221,60,159,5,126,190,211,194,166,60,17,108,203,189,197,121,170,190,28,147,37,189,227,38,167,62,86,216,87,62,88,226,187,189,161,90,143,62,217,86,111,190,132,208,16,61,48,30,186,190,112,213,84,190,15,150,112,190,232,55,86,62,166,105,18,190,226,24,5,190,52,178,116,190,199,117,30,190,205,184,142,188,140,21,237,189,76,112,126,61,218,86,253,61,71,227,214,190,251,189,135,190,150,74,107,62,84,231,255,61,21,74,20,62,39,185,247,61,219,224,12,190,162,20,146,62,137,254,51,189,140,37,38,190,44,84,95,190,62,61,50,62,225,177,64,190,109,154,122,190,11,240,27,189,55,223,174,59,6,219,99,190,251,131,132,190,253,230,38,190,187,139,127,62,236,34,29,191,59,194,242,61,168,66,156,62,92,9,59,190,147,21,92,62,146,202,224,62,78,36,66,61,114,156,255,255,16,0,0,0,31,0,0,0,28,0,0,0,44,0,0,0,4,0,0,0,12,0,0,0,1,0,0,0,1,0,0,0,28,0,0,0,14,0,0,0,115,116,100,46,99,111,110,115,116,97,110,116,50,52,0,0,244,155,255,255,30,157,255,255,4,0,0,0,64,2,0,0,62,210,37,61,154,104,148,61,49,130,137,190,212,179,77,61,228,165,24,190,191,78,66,61,164,162,166,190,34,170,95,59,28,168,115,190,55,36,129,188,73,4,8,190,126,19,89,190,14,166,96,60,103,72,109,62,68,104,144,62,189,33,240,190,118,11,132,190,177,63,237,61,202,137,139,62,152,69,203,61,142,79,70,190,170,223,177,190,115,169,81,189,142,120,224,190,230,60,141,190,203,251,194,61,4,113,94,190,10,59,127,61,67,58,174,62,96,232,206,189,166,174,71,190,2,73,87,62,195,202,119,189,95,206,192,61,198,72,142,62,116,80,218,61,18,145,58,62,156,242,60,189,116,167,19,62,250,54,89,190,20,126,37,60,127,10,22,61,186,140,254,62,28,72,23,62,186,39,169,190,55,215,141,62,35,58,128,190,136,52,207,61,247,246,245,61,35,190,179,190,177,255,178,190,141,135,153,62,30,56,155,61,175,30,63,190,28,174,210,190,95,33,232,60,51,63,170,61,45,101,20,62,47,112,117,189,218,55,90,60,123,176,37,190,68,221,85,62,128,214,1,62,101,208,207,190,67,220,199,189,216,10,163,62,110,221,115,62,73,242,200,62,173,226,146,190,36,92,22,62,2,3,73,190,158,119,225,190,185,18,146,62,164,18,38,62,250,37,48,190,224,146,174,62,224,166,182,190,168,222,249,190,17,135,196,190,129,141,89,189,42,47,119,62,157,165,209,190,197,214,22,188,183,130,194,190,54,104,98,190,229,142,123,62,65,129,53,190,193,51,133,62,209,117,208,61,153,89,15,190,255,52,134,189,195,79,106,190,96,132,145,190,114,187,76,189,73,144,198,189,76,91,66,190,93,215,226,190,242,142,210,62,64,239,233,61,158,191,108,62,127,114,142,190,94,163,91,61,126,144,203,190,155,10,227,62,91,199,230,189,234,72,129,190,96,171,71,62,37,190,178,186,49,134,122,62,11,160,129,188,105,83,63,62,69,55,192,190,128,238,189,190,201,141,170,190,252,108,30,62,155,188,200,62,157,90,4,189,154,144,251,58,43,164,116,62,168,123,144,188,155,243,142,190,173,33,110,62,254,11,240,62,134,37,71,62,181,205,9,190,245,59,215,190,192,92,30,60,39,129,101,61,240,145,101,189,131,4,202,187,181,95,21,62,216,31,243,190,219,83,208,190,151,158,153,190,182,60,129,62,242,211,189,189,145,102,207,190,96,203,184,190,58,84,227,190,238,17,255,61,255,116,244,61,37,137,15,62,96,228,31,190,100,89,162,62,254,158,255,255,16,0,0,0,30,0,0,0,28,0,0,0,44,0,0,0,4,0,0,0,12,0,0,0,1,0,0,0,2,0,0,0,6,0,0,0,14,0,0,0,115,116,100,46,99,111,110,115,116,97,110,116,50,51,0,0,128,158,255,255,170,159,255,255,4,0,0,0,160,2,0,0,23,69,28,60,105,50,132,62,175,61,15,62,153,159,98,62,241,226,217,190,110,211,202,190,120,184,223,188,250,180,192,62,115,2,31,190,57,185,177,62,74,215,152,190,98,85,230,189,67,54,156,189,76,229,147,60,174,101,205,189,125,193,58,62,248,122,141,189,178,251,5,61,40,243,152,62,127,30,241,189,64,123,179,60,156,103,83,190,37,212,46,190,29,74,13,63,160,176,48,190,172,42,67,62,39,200,87,62,132,127,160,190,132,198,86,61,37,234,115,190,36,44,161,62,36,254,221,61,146,200,50,189,70,209,42,190,173,32,251,61,22,83,187,60,205,230,176,189,51,160,130,61,208,219,190,62,111,183,168,62,250,218,165,61,95,192,13,58,135,145,194,61,9,76,185,190,207,64,124,61,138,172,80,62,28,5,131,62,18,14,57,188,92,111,228,189,213,73,51,62,161,43,107,62,26,92,249,61,239,163,201,61,14,100,225,190,11,115,214,62,211,77,34,189,137,73,12,62,142,218,53,63,0,16,177,190,211,57,205,62,22,225,45,190,18,24,213,62,32,184,108,189,214,171,57,190,223,219,216,61,163,52,21,62,94,90,119,190,146,219,100,61,21,197,70,190,159,191,107,62,251,183,161,190,91,102,235,190,202,194,211,61,54,227,248,61,24,46,47,189,119,88,4,62,232,157,161,59,0,213,180,189,87,113,132,62,58,104,176,60,205,225,245,60,35,200,140,190,193,250,237,190,73,66,149,62,106,119,88,62,53,94,211,60,15,159,156,190,237,67,132,62,195,47,193,61,81,136,136,190,92,64,142,60,208,16,45,190,226,239,238,189,30,70,198,61,141,137,35,62,220,191,98,189,228,4,134,190,169,91,75,62,4,238,8,188,18,228,65,190,8,191,146,190,255,84,209,189,220,245,156,190,10,41,107,61,201,246,165,61,232,252,43,190,210,62,171,190,247,106,99,189,132,190,37,62,72,116,248,61,130,196,150,60,30,105,165,61,61,59,132,190,170,223,203,190,137,96,74,61,111,3,149,62,107,37,132,62,253,213,143,190,229,139,134,190,82,179,119,190,175,47,137,62,92,222,40,190,226,0,35,60,138,119,7,190,246,187,114,60,46,116,105,190,43,37,33,190,203,2,147,61,61,217,251,189,253,172,28,190,221,50,8,189,4,201,71,190,62,178,218,189,184,58,200,61,48,59,56,62,231,119,240,62,93,211,225,61,82,49,250,190,19,144,26,63,14,242,188,61,235,94,35,189,43,111,225,61,8,16,173,190,23,25,187,190,86,137,48,190,198,210,140,62,114,26,19,189,15,63,21,63,223,155,0,62,166,88,61,189,61,252,98,189,66,11,173,190,24,159,139,187,114,97,201,60,163,173,204,190,244,221,147,190,246,199,159,61,134,188,71,190,170,66,56,189,26,20,224,190,46,246,251,190,240,27,46,61,75,201,124,189,195,49,215,187,164,253,121,62,88,6,222,60,74,48,25,190,114,89,137,189,234,161,255,255,16,0,0,0,29,0,0,0,28,0,0,0,44,0,0,0,4,0,0,0,6,0,0,0,1,0,0,0,1,0,0,0,28,0,0,0,14,0,0,0,115,116,100,46,99,111,110,115,116,97,110,116,50,50,0,0,108,161,255,255,150,162,255,255,4,0,0,0,160,2,0,0,26,131,90,189,126,84,176,61,116,162,205,59,150,192,184,61,140,83,131,62,78,161,47,62,244,228,73,60,7,242,100,62,174,176,44,190,204,204,183,60,81,86,51,63,10,210,129,189,120,89,84,61,82,146,120,60,73,157,18,190,217,151,84,190,53,37,192,61,237,158,143,62,51,223,52,62,79,75,16,63,12,60,6,62,59,58,154,62,51,59,48,188,205,207,226,60,214,238,189,190,16,233,30,63,86,218,23,63,235,96,23,62,166,67,195,60,250,112,102,190,77,193,188,62,74,168,164,60,39,212,82,61,223,180,236,62,27,2,138,61,40,14,240,189,74,103,142,189,71,192,3,61,231,244,49,62,121,252,85,190,237,212,23,190,136,246,161,61,122,212,69,189,233,148,145,189,50,253,220,189,247,40,185,189,121,239,227,61,219,181,62,191,116,143,59,190,216,191,218,188,124,196,185,189,150,91,177,190,196,200,175,190,119,220,16,190,146,5,16,63,60,193,191,190,32,11,161,61,181,24,63,188,249,35,74,62,9,117,1,190,86,6,67,190,60,251,30,190,34,32,131,60,118,200,201,190,221,181,151,190,129,87,224,190,228,109,143,62,109,215,32,190,245,212,143,189,254,244,136,190,166,74,129,190,92,114,145,62,199,56,34,190,148,187,251,189,176,95,163,62,144,133,119,62,113,138,173,62,128,186,127,62,253,231,232,190,6,17,193,189,204,132,151,190,31,81,92,189,101,113,248,61,224,15,141,190,167,115,120,62,227,207,158,61,28,128,3,190,253,10,231,190,89,194,221,190,68,61,93,190,154,189,136,189,35,102,184,189,184,45,169,62,48,59,214,190,37,157,138,190,111,19,169,190,145,154,100,62,42,135,9,62,68,185,85,190,108,49,27,61,10,241,221,61,206,68,155,190,23,107,132,62,83,43,90,189,210,207,192,189,57,108,25,61,136,84,224,61,14,248,17,61,230,60,229,190,239,124,153,62,203,224,82,189,60,199,125,188,149,187,16,190,150,156,30,63,91,94,167,62,214,93,236,189,46,113,136,189,86,100,103,62,171,186,2,62,136,203,145,62,175,169,172,189,32,241,243,60,27,195,91,189,183,92,99,62,138,189,245,61,149,156,229,189,45,108,21,190,164,16,151,62,223,129,138,60,102,200,197,62,186,86,63,190,144,226,7,62,153,73,153,190,15,242,140,191,227,225,13,190,161,25,241,60,136,160,255,61,47,142,48,62,217,216,127,61,145,145,63,60,168,231,238,61,126,123,233,190,143,120,145,62,221,3,171,62,149,141,38,62,101,52,109,190,244,135,11,62,186,206,133,190,169,36,82,61,134,138,130,189,62,251,157,62,232,229,72,62,21,229,68,62,113,64,220,190,0,116,5,190,126,159,72,191,60,100,204,61,115,195,17,61,192,231,192,61,107,128,88,190,171,181,48,62,126,98,29,62,2,53,155,189,57,133,80,189,245,169,174,62,136,118,208,190,242,152,9,189,119,162,16,62,214,164,255,255,16,0,0,0,28,0,0,0,28,0,0,0,44,0,0,0,4,0,0,0,6,0,0,0,1,0,0,0,1,0,0,0,28,0,0,0,14,0,0,0,115,116,100,46,99,111,110,115,116,97,110,116,50,49,0,0,88,164,255,255,130,165,255,255,4,0,0,0,96,3,0,0,170,149,170,62,184,114,141,62,255,124,131,62,204,229,96,190,240,18,122,62,182,27,254,61,217,168,145,62,218,116,98,61,246,195,39,189,209,165,50,190,174,72,174,190,2,91,18,190,105,123,23,62,186,250,232,189,177,151,175,59,135,80,143,190,49,166,14,62,206,24,47,190,163,52,45,62,151,188,225,189,88,100,13,62,240,158,229,190,145,78,45,190,31,176,8,190,165,51,19,190,43,174,161,189,91,50,1,190,30,201,44,189,2,97,96,190,197,253,179,190,81,200,218,189,16,91,208,60,208,235,2,189,250,229,135,61,218,182,211,190,155,72,54,190,169,75,100,62,63,32,135,189,47,3,24,62,167,119,40,190,189,82,187,188,44,50,142,190,83,172,160,61,156,123,85,62,226,39,93,61,216,117,144,190,160,23,88,61,88,29,188,190,51,101,136,58,106,175,6,59,237,146,168,62,28,201,34,61,224,14,109,62,178,207,141,190,172,64,121,190,137,139,85,62,175,67,186,189,159,154,220,189,205,237,109,60,166,167,9,190,199,130,61,190,97,85,159,62,185,102,41,190,206,120,75,61,107,118,29,190,22,89,130,190,232,20,98,190,152,60,62,62,197,137,150,188,199,9,64,62,17,84,150,190,30,76,197,190,32,50,12,190,206,49,146,190,92,5,135,62,146,118,242,188,9,57,160,61,131,148,111,62,201,65,111,62,99,232,132,190,172,243,200,62,60,198,42,190,70,56,74,61,219,16,49,62,252,98,161,62,116,136,4,191,156,47,204,62,25,101,201,189,1,113,191,189,155,206,161,61,2,143,81,61,64,238,142,190,66,243,98,60,17,101,188,61,84,175,25,62,96,245,83,190,2,113,147,62,30,38,71,190,79,59,53,190,147,64,128,190,118,131,183,62,97,100,226,190,133,234,1,190,25,93,206,190,17,106,165,190,177,184,47,59,43,205,0,61,195,51,193,190,187,243,164,190,84,137,84,62,47,81,174,189,23,77,46,190,84,97,2,62,112,140,220,189,11,82,212,189,232,178,17,62,235,8,60,59,16,11,86,62,83,54,140,61,134,22,62,190,123,238,54,190,255,66,138,62,212,7,150,189,178,242,171,190,244,10,65,61,192,101,240,61,77,97,151,61,137,34,177,59,130,161,202,190,67,13,180,61,75,142,3,190,176,62,169,189,165,22,32,62,155,17,236,188,168,189,164,190,113,83,176,61,159,102,252,189,80,103,30,189,151,48,27,62,17,241,199,61,237,3,13,191,92,43,63,62,73,162,41,189,7,44,23,189,15,98,1,62,23,17,102,190,151,50,131,61,144,238,73,61,174,100,42,190,183,25,35,190,154,127,111,61,169,97,68,190,143,235,15,62,67,162,177,61,13,120,213,189,126,206,33,61,60,230,82,189,174,247,125,190,83,98,78,62,198,119,182,62,175,225,87,190,71,66,50,189,171,205,168,61,141,247,155,61,8,223,137,61,137,61,47,190,87,62,192,190,136,58,26,62,74,29,25,60,221,124,125,190,182,9,7,190,113,167,3,61,100,130,187,188,124,209,189,190,62,210,130,189,11,195,100,61,219,135,174,189,10,67,159,190,111,17,93,190,3,86,60,190,249,141,170,189,146,173,189,61,242,18,50,62,178,124,195,190,69,150,191,61,33,247,20,61,18,60,59,61,102,171,61,190,243,148,203,62,158,231,43,62,231,248,81,62,177,247,58,189,226,84,0,190,147,244,64,62,0,25,0,62,208,0,205,60,190,41,177,62,191,188,61,190,8,120,254,188,113,178,19,61,126,250,230,61,185,28,66,190,60,238,176,190,220,17,10,62,181,226,148,60,71,197,36,190,5,65,129,190,116,240,75,190,62,66,131,60,222,156,178,190,119,212,45,61,106,230,206,189,120,68,122,190,5,217,96,189,0,211,182,62,126,16,225,190,130,168,255,255,16,0,0,0,27,0,0,0,28,0,0,0,44,0,0,0,4,0,0,0,12,0,0,0,1,0,0,0,3,0,0,0,6,0,0,0,14,0,0,0,115,116,100,46,99,111,110,115,116,97,110,116,50,48,0,0,4,168,255,255,46,169,255,255,4,0,0,0,160,2,0,0,1,223,66,189,111,131,25,61,222,243,116,189,179,205,217,188,119,92,65,61,167,144,32,191,131,61,60,190,236,150,96,189,45,67,221,189,219,242,131,62,90,19,181,62,50,104,75,189,118,119,234,61,133,48,32,190,209,88,171,189,175,68,135,62,27,169,59,62,14,134,202,189,20,98,0,62,80,199,191,61,120,224,21,62,136,95,66,63,206,8,180,190,206,41,192,189,207,184,184,190,10,99,110,62,235,33,193,190,129,8,173,190,52,14,35,190,1,225,4,191,4,146,163,62,180,136,108,62,99,209,143,190,17,107,55,62,136,8,174,189,181,132,36,189,86,57,209,189,68,71,104,61,37,225,203,189,227,42,216,188,53,0,86,62,47,81,7,60,134,249,35,62,20,23,224,190,35,36,95,62,185,202,175,61,25,15,188,62,67,85,237,60,51,193,139,62,233,208,49,191,95,216,207,61,128,141,182,62,212,29,77,62,53,45,65,191,163,196,169,190,39,239,28,190,253,38,160,190,90,142,222,61,209,27,47,190,77,17,99,190,7,198,210,189,58,199,130,62,113,116,141,190,245,152,221,62,43,114,255,61,15,140,181,190,172,192,181,62,104,79,137,61,86,72,237,61,113,163,231,190,77,5,130,62,169,179,172,62,228,70,118,190,1,94,82,190,40,76,189,61,177,109,58,61,115,121,192,61,243,139,4,191,153,105,144,189,83,168,226,187,3,190,84,62,57,104,206,62,162,58,118,190,90,152,66,190,130,125,62,62,159,37,95,62,44,22,60,61,251,178,207,59,44,26,85,62,48,154,162,62,217,182,23,189,122,129,182,62,120,204,127,190,79,137,106,62,184,243,158,62,226,240,63,62,55,152,144,189,36,111,190,62,108,63,145,62,39,34,2,191,63,112,44,189,251,254,78,190,94,194,124,62,220,73,147,190,159,245,68,62,181,170,21,63,87,103,19,190,67,110,34,191,236,74,128,61,237,46,144,190,47,134,50,61,11,218,103,190,238,143,187,